{
  "version": "1.0",
  "truncation": null,
  "padding": null,
  "added_tokens": [
    {
      "id": 0,
      "content": "[UNK]",
      "single_word": false,
      "lstrip": false,
      "rstrip": false,
      "normalized": false,
      "special": true
    },
    {
      "id": 1,
      "content": "[PAD]",
      "single_word": false,
      "lstrip": false,
      "rstrip": false,
      "normalized": false,
      "special": true
    },
    {
      "id": 2,
      "content": "[BOS]",
      "single_word": false,
      "lstrip": false,
      "rstrip": false,
      "normalized": false,
      "special": true
    },
    {
      "id": 3,
      "content": "[EOS]",
      "single_word": false,
      "lstrip": false,
      "rstrip": false,
      "normalized": false,
      "special": true
    }
  ],
  "normalizer": null,
  "pre_tokenizer": {
    "type": "Whitespace"
  },
  "post_processor": null,
  "decoder": null,
  "model": {
    "type": "BPE",
    "dropout": null,
    "unk_token": "[UNK]",
    "continuing_subword_prefix": null,
    "end_of_word_suffix": null,
    "fuse_unk": false,
    "byte_fallback": false,
    "ignore_merges": false,
    "vocab": {
      "[UNK]": 0,
      "[PAD]": 1,
      "[BOS]": 2,
      "[EOS]": 3,
      "!": 4,
      "\"": 5,
      "#": 6,
      "$": 7,
      "%": 8,
      "&": 9,
      "'": 10,
      "(": 11,
      ")": 12,
      "*": 13,
      "+": 14,
      ",": 15,
      "-": 16,
      ".": 17,
      "/": 18,
      "0": 19,
      "1": 20,
      "2": 21,
      "3": 22,
      "4": 23,
      "5": 24,
      "6": 25,
      "7": 26,
      "8": 27,
      "9": 28,
      ":": 29,
      ";": 30,
      "<": 31,
      "=": 32,
      ">": 33,
      "?": 34,
      "@": 35,
      "A": 36,
      "B": 37,
      "C": 38,
      "D": 39,
      "E": 40,
      "F": 41,
      "G": 42,
      "H": 43,
      "I": 44,
      "J": 45,
      "K": 46,
      "L": 47,
      "M": 48,
      "N": 49,
      "O": 50,
      "P": 51,
      "Q": 52,
      "R": 53,
      "S": 54,
      "T": 55,
      "U": 56,
      "V": 57,
      "W": 58,
      "X": 59,
      "Y": 60,
      "Z": 61,
      "[": 62,
      "\\": 63,
      "]": 64,
      "^": 65,
      "_": 66,
      "`": 67,
      "a": 68,
      "b": 69,
      "c": 70,
      "d": 71,
      "e": 72,
      "f": 73,
      "g": 74,
      "h": 75,
      "i": 76,
      "j": 77,
      "k": 78,
      "l": 79,
      "m": 80,
      "n": 81,
      "o": 82,
      "p": 83,
      "q": 84,
      "r": 85,
      "s": 86,
      "t": 87,
      "u": 88,
      "v": 89,
      "w": 90,
      "x": 91,
      "y": 92,
      "z": 93,
      "{": 94,
      "|": 95,
      "}": 96,
      "~": 97,
      "": 98,
      "": 99,
      "": 100,
      "": 101,
      "": 102,
      "": 103,
      "": 104,
      "": 105,
      "": 106,
      "": 107,
      "": 108,
      "": 109,
      "": 110,
      "": 111,
      "": 112,
      "": 113,
      "": 114,
      "": 115,
      "": 116,
      "¡": 117,
      "¢": 118,
      "£": 119,
      "¤": 120,
      "¥": 121,
      "¦": 122,
      "§": 123,
      "¨": 124,
      "©": 125,
      "ª": 126,
      "«": 127,
      "¬": 128,
      "­": 129,
      "®": 130,
      "¯": 131,
      "°": 132,
      "±": 133,
      "²": 134,
      "³": 135,
      "´": 136,
      "µ": 137,
      "¶": 138,
      "·": 139,
      "¸": 140,
      "¹": 141,
      "º": 142,
      "»": 143,
      "¼": 144,
      "½": 145,
      "¾": 146,
      "¿": 147,
      "À": 148,
      "Á": 149,
      "Â": 150,
      "Ã": 151,
      "Ä": 152,
      "Å": 153,
      "Æ": 154,
      "Ç": 155,
      "È": 156,
      "É": 157,
      "Ì": 158,
      "Í": 159,
      "Î": 160,
      "Ï": 161,
      "Ð": 162,
      "Ñ": 163,
      "Ò": 164,
      "Ó": 165,
      "Ô": 166,
      "Õ": 167,
      "Ö": 168,
      "×": 169,
      "Ø": 170,
      "Ú": 171,
      "Û": 172,
      "Ü": 173,
      "Ý": 174,
      "Þ": 175,
      "ß": 176,
      "à": 177,
      "á": 178,
      "â": 179,
      "ã": 180,
      "ä": 181,
      "å": 182,
      "æ": 183,
      "ç": 184,
      "è": 185,
      "é": 186,
      "ê": 187,
      "ë": 188,
      "ì": 189,
      "í": 190,
      "î": 191,
      "ï": 192,
      "ð": 193,
      "ñ": 194,
      "ò": 195,
      "ó": 196,
      "ô": 197,
      "õ": 198,
      "ö": 199,
      "÷": 200,
      "ø": 201,
      "ù": 202,
      "ú": 203,
      "û": 204,
      "ü": 205,
      "ý": 206,
      "þ": 207,
      "ÿ": 208,
      "Ā": 209,
      "ā": 210,
      "Ă": 211,
      "ă": 212,
      "ą": 213,
      "Ć": 214,
      "ć": 215,
      "ĉ": 216,
      "ċ": 217,
      "Č": 218,
      "č": 219,
      "ď": 220,
      "Đ": 221,
      "đ": 222,
      "Ē": 223,
      "ē": 224,
      "ĕ": 225,
      "ė": 226,
      "ę": 227,
      "ě": 228,
      "ĝ": 229,
      "ğ": 230,
      "Ģ": 231,
      "ĥ": 232,
      "ħ": 233,
      "ĩ": 234,
      "Ī": 235,
      "ī": 236,
      "į": 237,
      "İ": 238,
      "ı": 239,
      "ľ": 240,
      "Ł": 241,
      "ł": 242,
      "ń": 243,
      "ň": 244,
      "ŋ": 245,
      "Ō": 246,
      "ō": 247,
      "ŏ": 248,
      "ő": 249,
      "Œ": 250,
      "œ": 251,
      "Ř": 252,
      "ř": 253,
      "Ś": 254,
      "ś": 255,
      "Ş": 256,
      "ş": 257,
      "Š": 258,
      "š": 259,
      "Ţ": 260,
      "ţ": 261,
      "ť": 262,
      "Ŧ": 263,
      "ŧ": 264,
      "ũ": 265,
      "Ū": 266,
      "ū": 267,
      "ŭ": 268,
      "ů": 269,
      "ű": 270,
      "ų": 271,
      "ŵ": 272,
      "ŷ": 273,
      "Ÿ": 274,
      "ź": 275,
      "Ż": 276,
      "ż": 277,
      "Ž": 278,
      "ž": 279,
      "Ɗ": 280,
      "ƒ": 281,
      "ơ": 282,
      "Ƨ": 283,
      "ư": 284,
      "Ǉ": 285,
      "ǈ": 286,
      "ǉ": 287,
      "ǎ": 288,
      "ǐ": 289,
      "ǒ": 290,
      "ǔ": 291,
      "ǚ": 292,
      "ǝ": 293,
      "ȇ": 294,
      "Ș": 295,
      "ș": 296,
      "Ț": 297,
      "ț": 298,
      "ɂ": 299,
      "ɐ": 300,
      "ɑ": 301,
      "ɔ": 302,
      "ɕ": 303,
      "ə": 304,
      "ɚ": 305,
      "ɛ": 306,
      "ɜ": 307,
      "ɟ": 308,
      "ɡ": 309,
      "ɢ": 310,
      "ɣ": 311,
      "ɥ": 312,
      "ɦ": 313,
      "ɨ": 314,
      "ɪ": 315,
      "ɫ": 316,
      "ɯ": 317,
      "ɹ": 318,
      "ɾ": 319,
      "ʁ": 320,
      "ʃ": 321,
      "ʇ": 322,
      "ʊ": 323,
      "ʋ": 324,
      "ʌ": 325,
      "ʍ": 326,
      "ʎ": 327,
      "ʏ": 328,
      "ʒ": 329,
      "ʔ": 330,
      "ʕ": 331,
      "ʖ": 332,
      "ʙ": 333,
      "ʜ": 334,
      "ʝ": 335,
      "ʰ": 336,
      "ʲ": 337,
      "ʶ": 338,
      "ʷ": 339,
      "ʻ": 340,
      "ʼ": 341,
      "ʾ": 342,
      "ʿ": 343,
      "ˀ": 344,
      "ˈ": 345,
      "ˌ": 346,
      "ː": 347,
      "˙": 348,
      "˚": 349,
      "˜": 350,
      "ˢ": 351,
      "ˣ": 352,
      "ˤ": 353,
      "̀": 354,
      "́": 355,
      "̂": 356,
      "̃": 357,
      "̄": 358,
      "̅": 359,
      "̇": 360,
      "̈": 361,
      "̊": 362,
      "̌": 363,
      "̍": 364,
      "̐": 365,
      "̕": 366,
      "̖": 367,
      "̗": 368,
      "̘": 369,
      "̙": 370,
      "̚": 371,
      "̛": 372,
      "̜": 373,
      "̝": 374,
      "̞": 375,
      "̟": 376,
      "̠": 377,
      "̡": 378,
      "̢": 379,
      "̣": 380,
      "̤": 381,
      "̥": 382,
      "̦": 383,
      "̧": 384,
      "̨": 385,
      "̩": 386,
      "̪": 387,
      "̫": 388,
      "̬": 389,
      "̭": 390,
      "̮": 391,
      "̯": 392,
      "̰": 393,
      "̱": 394,
      "̲": 395,
      "̳": 396,
      "̴": 397,
      "̵": 398,
      "̶": 399,
      "̷": 400,
      "̸": 401,
      "̹": 402,
      "̺": 403,
      "̻": 404,
      "̼": 405,
      "̀": 406,
      "́": 407,
      "͂": 408,
      "̈́": 409,
      "ͅ": 410,
      "͇": 411,
      "͈": 412,
      "͉": 413,
      "͍": 414,
      "͎": 415,
      "͓": 416,
      "͔": 417,
      "͕": 418,
      "͖": 419,
      "͘": 420,
      "͙": 421,
      "͚": 422,
      "͜": 423,
      "͝": 424,
      "͞": 425,
      "͟": 426,
      "͠": 427,
      "͡": 428,
      "͢": 429,
      "Ά": 430,
      "Έ": 431,
      "Ή": 432,
      "Ό": 433,
      "Α": 434,
      "Β": 435,
      "Γ": 436,
      "Δ": 437,
      "Ε": 438,
      "Ζ": 439,
      "Η": 440,
      "Θ": 441,
      "Ι": 442,
      "Κ": 443,
      "Λ": 444,
      "Μ": 445,
      "Ν": 446,
      "Ξ": 447,
      "Ο": 448,
      "Π": 449,
      "Ρ": 450,
      "Σ": 451,
      "Τ": 452,
      "Υ": 453,
      "Φ": 454,
      "Χ": 455,
      "Ψ": 456,
      "Ω": 457,
      "ά": 458,
      "έ": 459,
      "ή": 460,
      "ί": 461,
      "α": 462,
      "β": 463,
      "γ": 464,
      "δ": 465,
      "ε": 466,
      "ζ": 467,
      "η": 468,
      "θ": 469,
      "ι": 470,
      "κ": 471,
      "λ": 472,
      "μ": 473,
      "ν": 474,
      "ξ": 475,
      "ο": 476,
      "π": 477,
      "ρ": 478,
      "ς": 479,
      "σ": 480,
      "τ": 481,
      "υ": 482,
      "φ": 483,
      "χ": 484,
      "ψ": 485,
      "ω": 486,
      "ό": 487,
      "ύ": 488,
      "ώ": 489,
      "ϑ": 490,
      "ϕ": 491,
      "Ϝ": 492,
      "ϝ": 493,
      "Ϣ": 494,
      "Ϭ": 495,
      "ϵ": 496,
      "Ј": 497,
      "А": 498,
      "Б": 499,
      "В": 500,
      "Г": 501,
      "Д": 502,
      "Е": 503,
      "Ж": 504,
      "З": 505,
      "И": 506,
      "К": 507,
      "Л": 508,
      "М": 509,
      "Н": 510,
      "О": 511,
      "П": 512,
      "Р": 513,
      "С": 514,
      "Т": 515,
      "У": 516,
      "Ф": 517,
      "Х": 518,
      "Ц": 519,
      "Ч": 520,
      "Ш": 521,
      "Щ": 522,
      "Э": 523,
      "Ю": 524,
      "Я": 525,
      "а": 526,
      "б": 527,
      "в": 528,
      "г": 529,
      "д": 530,
      "е": 531,
      "ж": 532,
      "з": 533,
      "и": 534,
      "й": 535,
      "к": 536,
      "л": 537,
      "м": 538,
      "н": 539,
      "о": 540,
      "п": 541,
      "р": 542,
      "с": 543,
      "т": 544,
      "у": 545,
      "ф": 546,
      "х": 547,
      "ц": 548,
      "ч": 549,
      "ш": 550,
      "щ": 551,
      "ъ": 552,
      "ы": 553,
      "ь": 554,
      "э": 555,
      "ю": 556,
      "я": 557,
      "ё": 558,
      "ђ": 559,
      "є": 560,
      "ѕ": 561,
      "і": 562,
      "ї": 563,
      "ј": 564,
      "ў": 565,
      "Ѽ": 566,
      "ҡ": 567,
      "ҷ": 568,
      "ӑ": 569,
      "ә": 570,
      "ӣ": 571,
      "Ӧ": 572,
      "ӧ": 573,
      "ԛ": 574,
      "Լ": 575,
      "Ն": 576,
      "ա": 577,
      "գ": 578,
      "ե": 579,
      "խ": 580,
      "հ": 581,
      "յ": 582,
      "ն": 583,
      "ո": 584,
      "ս": 585,
      "ր": 586,
      "֛": 587,
      "֫": 588,
      "ְ": 589,
      "ִ": 590,
      "ֵ": 591,
      "ֶ": 592,
      "ַ": 593,
      "ָ": 594,
      "ֹ": 595,
      "ֻ": 596,
      "ּ": 597,
      "־": 598,
      "ׁ": 599,
      "׃": 600,
      "א": 601,
      "ב": 602,
      "ג": 603,
      "ד": 604,
      "ה": 605,
      "ו": 606,
      "ז": 607,
      "ח": 608,
      "ט": 609,
      "י": 610,
      "ך": 611,
      "כ": 612,
      "ל": 613,
      "ם": 614,
      "מ": 615,
      "ן": 616,
      "נ": 617,
      "ס": 618,
      "ע": 619,
      "ף": 620,
      "פ": 621,
      "צ": 622,
      "ק": 623,
      "ר": 624,
      "ש": 625,
      "ת": 626,
      "،": 627,
      "ء": 628,
      "آ": 629,
      "أ": 630,
      "ؤ": 631,
      "إ": 632,
      "ئ": 633,
      "ا": 634,
      "ب": 635,
      "ة": 636,
      "ت": 637,
      "ث": 638,
      "ج": 639,
      "ح": 640,
      "خ": 641,
      "د": 642,
      "ذ": 643,
      "ر": 644,
      "ز": 645,
      "س": 646,
      "ش": 647,
      "ص": 648,
      "ض": 649,
      "ط": 650,
      "ظ": 651,
      "ع": 652,
      "غ": 653,
      "ـ": 654,
      "ف": 655,
      "ق": 656,
      "ك": 657,
      "ل": 658,
      "م": 659,
      "ن": 660,
      "ه": 661,
      "و": 662,
      "ى": 663,
      "ي": 664,
      "ً": 665,
      "ٌ": 666,
      "ٍ": 667,
      "َ": 668,
      "ُ": 669,
      "ِ": 670,
      "ّ": 671,
      "ْ": 672,
      "٪": 673,
      "ٰ": 674,
      "پ": 675,
      "چ": 676,
      "ڑ": 677,
      "ژ": 678,
      "ښ": 679,
      "ک": 680,
      "گ": 681,
      "ھ": 682,
      "ی": 683,
      "ې": 684,
      "ے": 685,
      "ە": 686,
      "ۖ": 687,
      "ۗ": 688,
      "ۚ": 689,
      "۰": 690,
      "۱": 691,
      "ܐ": 692,
      "ܓ": 693,
      "ܙ": 694,
      "ܢ": 695,
      "ܥ": 696,
      "ܪ": 697,
      "ހ": 698,
      "ބ": 699,
      "އ": 700,
      "ވ": 701,
      "މ": 702,
      "ދ": 703,
      "ލ": 704,
      "ސ": 705,
      "ަ": 706,
      "ާ": 707,
      "ި": 708,
      "ީ": 709,
      "ު": 710,
      "ެ": 711,
      "ޯ": 712,
      "ް": 713,
      "ं": 714,
      "ः": 715,
      "अ": 716,
      "आ": 717,
      "इ": 718,
      "ई": 719,
      "ए": 720,
      "ओ": 721,
      "क": 722,
      "ख": 723,
      "ग": 724,
      "च": 725,
      "ज": 726,
      "ञ": 727,
      "ठ": 728,
      "ड": 729,
      "त": 730,
      "थ": 731,
      "द": 732,
      "न": 733,
      "प": 734,
      "ब": 735,
      "भ": 736,
      "म": 737,
      "य": 738,
      "र": 739,
      "ल": 740,
      "व": 741,
      "श": 742,
      "ष": 743,
      "स": 744,
      "ह": 745,
      "ा": 746,
      "ि": 747,
      "ी": 748,
      "ु": 749,
      "ू": 750,
      "ॆ": 751,
      "े": 752,
      "ै": 753,
      "ो": 754,
      "्": 755,
      "।": 756,
      "॥": 757,
      "१": 758,
      "३": 759,
      "ং": 760,
      "ও": 761,
      "ক": 762,
      "চ": 763,
      "জ": 764,
      "ঞ": 765,
      "ড": 766,
      "ত": 767,
      "ন": 768,
      "প": 769,
      "ব": 770,
      "ভ": 771,
      "ম": 772,
      "য": 773,
      "র": 774,
      "ল": 775,
      "ষ": 776,
      "স": 777,
      "হ": 778,
      "়": 779,
      "া": 780,
      "ি": 781,
      "ে": 782,
      "্": 783,
      "ਂ": 784,
      "ਈ": 785,
      "ਕ": 786,
      "ਖ": 787,
      "ਜ": 788,
      "ਤ": 789,
      "ਦ": 790,
      "ਪ": 791,
      "ਬ": 792,
      "ਰ": 793,
      "ਲ": 794,
      "ਸ": 795,
      "ਾ": 796,
      "ਿ": 797,
      "ੀ": 798,
      "ੇ": 799,
      "ੰ": 800,
      "ગ": 801,
      "જ": 802,
      "ત": 803,
      "ભ": 804,
      "ર": 805,
      "ષ": 806,
      "ા": 807,
      "ી": 808,
      "ુ": 809,
      "ଂ": 810,
      "କ": 811,
      "ଣ": 812,
      "ତ": 813,
      "ନ": 814,
      "ପ": 815,
      "ର": 816,
      "ସ": 817,
      "ା": 818,
      "ି": 819,
      "୍": 820,
      "க": 821,
      "ட": 822,
      "த": 823,
      "ந": 824,
      "ப": 825,
      "ம": 826,
      "ய": 827,
      "ர": 828,
      "ற": 829,
      "ல": 830,
      "ள": 831,
      "ழ": 832,
      "வ": 833,
      "ஸ": 834,
      "ா": 835,
      "ி": 836,
      "ு": 837,
      "ொ": 838,
      "ோ": 839,
      "்": 840,
      "ల": 841,
      "వ": 842,
      "స": 843,
      "ా": 844,
      "ో": 845,
      "్": 846,
      "ಕ": 847,
      "ಜ": 848,
      "ಞ": 849,
      "ಠ": 850,
      "ಡ": 851,
      "ನ": 852,
      "ಭ": 853,
      "ಲ": 854,
      "ವ": 855,
      "ಷ": 856,
      "ಸ": 857,
      "ಾ": 858,
      "ಿ": 859,
      "ೋ": 860,
      "್": 861,
      "ം": 862,
      "അ": 863,
      "ജ": 864,
      "ട": 865,
      "ത": 866,
      "പ": 867,
      "ഭ": 868,
      "മ": 869,
      "യ": 870,
      "ല": 871,
      "ള": 872,
      "വ": 873,
      "ഷ": 874,
      "സ": 875,
      "ാ": 876,
      "ി": 877,
      "ൂ": 878,
      "ോ": 879,
      "്": 880,
      "ං": 881,
      "ල": 882,
      "ස": 883,
      "හ": 884,
      "ි": 885,
      "ก": 886,
      "ข": 887,
      "ค": 888,
      "ง": 889,
      "จ": 890,
      "ช": 891,
      "ซ": 892,
      "ด": 893,
      "ต": 894,
      "ถ": 895,
      "ท": 896,
      "ธ": 897,
      "น": 898,
      "บ": 899,
      "ป": 900,
      "ผ": 901,
      "พ": 902,
      "ฟ": 903,
      "ภ": 904,
      "ม": 905,
      "ย": 906,
      "ร": 907,
      "ล": 908,
      "ว": 909,
      "ศ": 910,
      "ษ": 911,
      "ส": 912,
      "ห": 913,
      "อ": 914,
      "ะ": 915,
      "ั": 916,
      "า": 917,
      "ำ": 918,
      "ิ": 919,
      "ี": 920,
      "ื": 921,
      "ุ": 922,
      "ู": 923,
      "เ": 924,
      "แ": 925,
      "ใ": 926,
      "ไ": 927,
      "็": 928,
      "่": 929,
      "้": 930,
      "๊": 931,
      "๋": 932,
      "์": 933,
      "ຊ": 934,
      "ດ": 935,
      "ຕ": 936,
      "ທ": 937,
      "ນ": 938,
      "ປ": 939,
      "ພ": 940,
      "ລ": 941,
      "ວ": 942,
      "ສ": 943,
      "ະ": 944,
      "ັ": 945,
      "າ": 946,
      "ິ": 947,
      "ົ": 948,
      "ເ": 949,
      "ໄ": 950,
      "་": 951,
      "༽": 952,
      "ག": 953,
      "ཆ": 954,
      "ཇ": 955,
      "ད": 956,
      "ན": 957,
      "པ": 958,
      "ཕ": 959,
      "བ": 960,
      "འ": 961,
      "ལ": 962,
      "ས": 963,
      "ུ": 964,
      "ེ": 965,
      "ོ": 966,
      "ྐ": 967,
      "န": 968,
      "ဘ": 969,
      "မ": 970,
      "သ": 971,
      "ာ": 972,
      "်": 973,
      "ြ": 974,
      "ა": 975,
      "ბ": 976,
      "გ": 977,
      "ე": 978,
      "ვ": 979,
      "ზ": 980,
      "თ": 981,
      "ი": 982,
      "კ": 983,
      "ლ": 984,
      "მ": 985,
      "ნ": 986,
      "ო": 987,
      "რ": 988,
      "ს": 989,
      "უ": 990,
      "ფ": 991,
      "ქ": 992,
      "ჩ": 993,
      "ც": 994,
      "ሐ": 995,
      "መ": 996,
      "ማ": 997,
      "ም": 998,
      "ር": 999,
      "ቋ": 1000,
      "ብ": 1001,
      "ት": 1002,
      "ና": 1003,
      "ን": 1004,
      "ኛ": 1005,
      "አ": 1006,
      "የ": 1007,
      "ያ": 1008,
      "ድ": 1009,
      "ጥ": 1010,
      "Ꮎ": 1011,
      "Ꮟ": 1012,
      "Ꮤ": 1013,
      "ᐃ": 1014,
      "ᐅ": 1015,
      "ᐊ": 1016,
      "ᑎ": 1017,
      "ᑐ": 1018,
      "ᑕ": 1019,
      "ᑦ": 1020,
      "ᑰ": 1021,
      "ᒃ": 1022,
      "ᒋ": 1023,
      "ᒪ": 1024,
      "ᒻ": 1025,
      "ᓂ": 1026,
      "ᓄ": 1027,
      "ᓇ": 1028,
      "ᓕ": 1029,
      "ᓯ": 1030,
      "ᓴ": 1031,
      "ᔉ": 1032,
      "ᔊ": 1033,
      "ᔵ": 1034,
      "ᔺ": 1035,
      "ᕆ": 1036,
      "ᕈ": 1037,
      "ᕋ": 1038,
      "ᕐ": 1039,
      "ᖄ": 1040,
      "ᖅ": 1041,
      "ᖏ": 1042,
      "ᚱ": 1043,
      "ᚾ": 1044,
      "ᛁ": 1045,
      "ᛗ": 1046,
      "ᛚ": 1047,
      "ᛟ": 1048,
      "ទ": 1049,
      "ប": 1050,
      "រ": 1051,
      "វ": 1052,
      "ស": 1053,
      "ឡ": 1054,
      "ា": 1055,
      "េ": 1056,
      "្": 1057,
      "ᴀ": 1058,
      "ᴄ": 1059,
      "ᴇ": 1060,
      "ᴉ": 1061,
      "ᴏ": 1062,
      "ᴛ": 1063,
      "ᴠ": 1064,
      "ᴥ": 1065,
      "ᴳ": 1066,
      "ᴹ": 1067,
      "ᴼ": 1068,
      "ᵃ": 1069,
      "ᵇ": 1070,
      "ᵔ": 1071,
      "ᵗ": 1072,
      "ᶥ": 1073,
      "Ḍ": 1074,
      "ḍ": 1075,
      "ḏ": 1076,
      "ḗ": 1077,
      "Ḥ": 1078,
      "ḥ": 1079,
      "ḫ": 1080,
      "ḳ": 1081,
      "ḷ": 1082,
      "ṁ": 1083,
      "ṃ": 1084,
      "ṅ": 1085,
      "Ṇ": 1086,
      "ṇ": 1087,
      "ṓ": 1088,
      "Ṛ": 1089,
      "ṛ": 1090,
      "Ṣ": 1091,
      "ṣ": 1092,
      "Ṭ": 1093,
      "ṭ": 1094,
      "ṳ": 1095,
      "ẓ": 1096,
      "ạ": 1097,
      "ả": 1098,
      "ấ": 1099,
      "ầ": 1100,
      "ẩ": 1101,
      "ắ": 1102,
      "ặ": 1103,
      "ẹ": 1104,
      "ế": 1105,
      "ề": 1106,
      "ễ": 1107,
      "ệ": 1108,
      "ỉ": 1109,
      "ị": 1110,
      "Ọ": 1111,
      "ọ": 1112,
      "ố": 1113,
      "ồ": 1114,
      "ộ": 1115,
      "ớ": 1116,
      "ờ": 1117,
      "ụ": 1118,
      "ủ": 1119,
      "ứ": 1120,
      "ữ": 1121,
      "ự": 1122,
      "ỳ": 1123,
      "ἀ": 1124,
      "ἁ": 1125,
      "ἄ": 1126,
      "ἅ": 1127,
      "Ἀ": 1128,
      "Ἄ": 1129,
      "ἐ": 1130,
      "ἔ": 1131,
      "Ἑ": 1132,
      "ἠ": 1133,
      "ἡ": 1134,
      "ἢ": 1135,
      "ἤ": 1136,
      "ἥ": 1137,
      "ἦ": 1138,
      "ἰ": 1139,
      "ἴ": 1140,
      "ἵ": 1141,
      "Ἰ": 1142,
      "Ἱ": 1143,
      "ὀ": 1144,
      "ὁ": 1145,
      "ὄ": 1146,
      "ὐ": 1147,
      "ὑ": 1148,
      "ὕ": 1149,
      "ὥ": 1150,
      "ὰ": 1151,
      "ὴ": 1152,
      "ὶ": 1153,
      "ὸ": 1154,
      "ὺ": 1155,
      "ὼ": 1156,
      "᾽": 1157,
      "ῆ": 1158,
      "ῖ": 1159,
      "ῥ": 1160,
      "ῦ": 1161,
      "ῧ": 1162,
      "ῶ": 1163,
      "​": 1164,
      "‌": 1165,
      "‍": 1166,
      "‎": 1167,
      "‏": 1168,
      "‐": 1169,
      "‑": 1170,
      "‒": 1171,
      "–": 1172,
      "—": 1173,
      "―": 1174,
      "‘": 1175,
      "’": 1176,
      "‚": 1177,
      "‛": 1178,
      "“": 1179,
      "”": 1180,
      "„": 1181,
      "‟": 1182,
      "†": 1183,
      "‡": 1184,
      "•": 1185,
      "․": 1186,
      "…": 1187,
      "‧": 1188,
      "‪": 1189,
      "‫": 1190,
      "‬": 1191,
      "‭": 1192,
      "‮": 1193,
      "‰": 1194,
      "′": 1195,
      "″": 1196,
      "‹": 1197,
      "›": 1198,
      "※": 1199,
      "‽": 1200,
      "⁂": 1201,
      "⁄": 1202,
      "⁠": 1203,
      "⁡": 1204,
      "⁢": 1205,
      "⁰": 1206,
      "⁴": 1207,
      "⁵": 1208,
      "⁶": 1209,
      "⁷": 1210,
      "⁸": 1211,
      "⁹": 1212,
      "⁻": 1213,
      "₁": 1214,
      "₂": 1215,
      "₤": 1216,
      "€": 1217,
      "₱": 1218,
      "₹": 1219,
      "⃣": 1220,
      "℃": 1221,
      "ℑ": 1222,
      "ℓ": 1223,
      "№": 1224,
      "℗": 1225,
      "℘": 1226,
      "ℜ": 1227,
      "℞": 1228,
      "℠": 1229,
      "™": 1230,
      "ℵ": 1231,
      "ℶ": 1232,
      "ℹ": 1233,
      "⅓": 1234,
      "⅔": 1235,
      "⅜": 1236,
      "←": 1237,
      "↑": 1238,
      "→": 1239,
      "↓": 1240,
      "↔": 1241,
      "↦": 1242,
      "↩": 1243,
      "⇐": 1244,
      "⇒": 1245,
      "⇓": 1246,
      "⇚": 1247,
      "⇧": 1248,
      "∀": 1249,
      "∂": 1250,
      "∃": 1251,
      "∄": 1252,
      "∆": 1253,
      "∇": 1254,
      "∈": 1255,
      "∏": 1256,
      "∑": 1257,
      "−": 1258,
      "∓": 1259,
      "∗": 1260,
      "∘": 1261,
      "√": 1262,
      "∝": 1263,
      "∞": 1264,
      "∣": 1265,
      "∥": 1266,
      "∦": 1267,
      "∧": 1268,
      "∨": 1269,
      "∫": 1270,
      "∮": 1271,
      "∴": 1272,
      "∶": 1273,
      "∷": 1274,
      "∼": 1275,
      "≃": 1276,
      "≅": 1277,
      "≈": 1278,
      "≠": 1279,
      "≡": 1280,
      "≤": 1281,
      "≥": 1282,
      "≦": 1283,
      "≪": 1284,
      "≫": 1285,
      "≻": 1286,
      "⊕": 1287,
      "⊗": 1288,
      "⊥": 1289,
      "⋅": 1290,
      "⋆": 1291,
      "⋕": 1292,
      "⋮": 1293,
      "⋯": 1294,
      "⌘": 1295,
      "⎝": 1296,
      "⎠": 1297,
      "⎯": 1298,
      "Ⓡ": 1299,
      "Ⓥ": 1300,
      "ⓒ": 1301,
      "ⓘ": 1302,
      "─": 1303,
      "│": 1304,
      "┃": 1305,
      "┌": 1306,
      "┐": 1307,
      "└": 1308,
      "┘": 1309,
      "├": 1310,
      "┬": 1311,
      "┴": 1312,
      "┼": 1313,
      "╭": 1314,
      "╮": 1315,
      "╱": 1316,
      "╲": 1317,
      "╳": 1318,
      "╹": 1319,
      "▄": 1320,
      "█": 1321,
      "■": 1322,
      "□": 1323,
      "▢": 1324,
      "▪": 1325,
      "▲": 1326,
      "△": 1327,
      "▶": 1328,
      "▸": 1329,
      "►": 1330,
      "▼": 1331,
      "▾": 1332,
      "◂": 1333,
      "◊": 1334,
      "○": 1335,
      "●": 1336,
      "◔": 1337,
      "◕": 1338,
      "◡": 1339,
      "◥": 1340,
      "◦": 1341,
      "◻": 1342,
      "◾": 1343,
      "☀": 1344,
      "☁": 1345,
      "☃": 1346,
      "★": 1347,
      "☆": 1348,
      "☉": 1349,
      "☐": 1350,
      "☑": 1351,
      "☒": 1352,
      "☙": 1353,
      "☯": 1354,
      "☹": 1355,
      "☺": 1356,
      "♀": 1357,
      "♂": 1358,
      "♏": 1359,
      "♔": 1360,
      "♕": 1361,
      "♛": 1362,
      "♞": 1363,
      "♠": 1364,
      "♡": 1365,
      "♣": 1366,
      "♥": 1367,
      "♦": 1368,
      "♪": 1369,
      "♫": 1370,
      "♭": 1371,
      "♯": 1372,
      "⚐": 1373,
      "⚓": 1374,
      "⚔": 1375,
      "⚙": 1376,
      "⚠": 1377,
      "⚡": 1378,
      "⚥": 1379,
      "⚽": 1380,
      "⛽": 1381,
      "✂": 1382,
      "✈": 1383,
      "✋": 1384,
      "✌": 1385,
      "✍": 1386,
      "✓": 1387,
      "✔": 1388,
      "✕": 1389,
      "✖": 1390,
      "✧": 1391,
      "✨": 1392,
      "✮": 1393,
      "✿": 1394,
      "❄": 1395,
      "❋": 1396,
      "❌": 1397,
      "❍": 1398,
      "❎": 1399,
      "❤": 1400,
      "❧": 1401,
      "❮": 1402,
      "❯": 1403,
      "➙": 1404,
      "➜": 1405,
      "➡": 1406,
      "➤": 1407,
      "⟨": 1408,
      "⟩": 1409,
      "⟶": 1410,
      "⟹": 1411,
      "⟺": 1412,
      "⦁": 1413,
      "⬇": 1414,
      "⭐": 1415,
      "ⲁ": 1416,
      "ⲏ": 1417,
      "Ⲑ": 1418,
      "ⲑ": 1419,
      "ⲓ": 1420,
      "ⲙ": 1421,
      "ⲛ": 1422,
      "ⲟ": 1423,
      "ⲥ": 1424,
      "ⲧ": 1425,
      "ⲩ": 1426,
      "Ⲭ": 1427,
      "ⲱ": 1428,
      "ⴰ": 1429,
      "ⴱ": 1430,
      "ⴻ": 1431,
      "ⵄ": 1432,
      "ⵉ": 1433,
      "ⵍ": 1434,
      "ⵎ": 1435,
      "ⵏ": 1436,
      "ⵓ": 1437,
      "ⵙ": 1438,
      "ⵜ": 1439,
      "ⵟ": 1440,
      "ⵡ": 1441,
      "⸢": 1442,
      "⸣": 1443,
      "⸮": 1444,
      "、": 1445,
      "。": 1446,
      "々": 1447,
      "〈": 1448,
      "〉": 1449,
      "《": 1450,
      "》": 1451,
      "「": 1452,
      "」": 1453,
      "『": 1454,
      "』": 1455,
      "【": 1456,
      "】": 1457,
      "〒": 1458,
      "あ": 1459,
      "い": 1460,
      "う": 1461,
      "ぇ": 1462,
      "え": 1463,
      "お": 1464,
      "か": 1465,
      "が": 1466,
      "き": 1467,
      "ぎ": 1468,
      "く": 1469,
      "ぐ": 1470,
      "け": 1471,
      "げ": 1472,
      "こ": 1473,
      "ご": 1474,
      "さ": 1475,
      "ざ": 1476,
      "し": 1477,
      "じ": 1478,
      "す": 1479,
      "ず": 1480,
      "せ": 1481,
      "ぜ": 1482,
      "そ": 1483,
      "ぞ": 1484,
      "た": 1485,
      "だ": 1486,
      "ち": 1487,
      "っ": 1488,
      "つ": 1489,
      "づ": 1490,
      "て": 1491,
      "で": 1492,
      "と": 1493,
      "ど": 1494,
      "な": 1495,
      "に": 1496,
      "ね": 1497,
      "の": 1498,
      "は": 1499,
      "ば": 1500,
      "ぱ": 1501,
      "ひ": 1502,
      "び": 1503,
      "ぴ": 1504,
      "ふ": 1505,
      "ぶ": 1506,
      "へ": 1507,
      "べ": 1508,
      "ほ": 1509,
      "ぼ": 1510,
      "ぽ": 1511,
      "ま": 1512,
      "み": 1513,
      "む": 1514,
      "め": 1515,
      "も": 1516,
      "ゃ": 1517,
      "や": 1518,
      "ゅ": 1519,
      "ゆ": 1520,
      "ょ": 1521,
      "よ": 1522,
      "ら": 1523,
      "り": 1524,
      "る": 1525,
      "れ": 1526,
      "ろ": 1527,
      "わ": 1528,
      "を": 1529,
      "ん": 1530,
      "゜": 1531,
      "ァ": 1532,
      "ア": 1533,
      "ィ": 1534,
      "イ": 1535,
      "ゥ": 1536,
      "ウ": 1537,
      "ェ": 1538,
      "エ": 1539,
      "ォ": 1540,
      "オ": 1541,
      "カ": 1542,
      "ガ": 1543,
      "キ": 1544,
      "ギ": 1545,
      "ク": 1546,
      "グ": 1547,
      "ケ": 1548,
      "ゲ": 1549,
      "コ": 1550,
      "ゴ": 1551,
      "サ": 1552,
      "ザ": 1553,
      "シ": 1554,
      "ジ": 1555,
      "ス": 1556,
      "ズ": 1557,
      "セ": 1558,
      "ゼ": 1559,
      "ソ": 1560,
      "ゾ": 1561,
      "タ": 1562,
      "ダ": 1563,
      "チ": 1564,
      "ッ": 1565,
      "ツ": 1566,
      "テ": 1567,
      "デ": 1568,
      "ト": 1569,
      "ド": 1570,
      "ナ": 1571,
      "ニ": 1572,
      "ヌ": 1573,
      "ネ": 1574,
      "ノ": 1575,
      "ハ": 1576,
      "バ": 1577,
      "パ": 1578,
      "ヒ": 1579,
      "ビ": 1580,
      "ピ": 1581,
      "フ": 1582,
      "ブ": 1583,
      "プ": 1584,
      "ヘ": 1585,
      "ベ": 1586,
      "ペ": 1587,
      "ホ": 1588,
      "ボ": 1589,
      "ポ": 1590,
      "マ": 1591,
      "ミ": 1592,
      "ム": 1593,
      "メ": 1594,
      "モ": 1595,
      "ャ": 1596,
      "ヤ": 1597,
      "ュ": 1598,
      "ユ": 1599,
      "ョ": 1600,
      "ヨ": 1601,
      "ラ": 1602,
      "リ": 1603,
      "ル": 1604,
      "レ": 1605,
      "ロ": 1606,
      "ヮ": 1607,
      "ワ": 1608,
      "ン": 1609,
      "ヴ": 1610,
      "ヶ": 1611,
      "・": 1612,
      "ー": 1613,
      "ㅋ": 1614,
      "ㅠ": 1615,
      "ㅡ": 1616,
      "㎡": 1617,
      "一": 1618,
      "丁": 1619,
      "万": 1620,
      "三": 1621,
      "上": 1622,
      "下": 1623,
      "不": 1624,
      "与": 1625,
      "世": 1626,
      "丘": 1627,
      "业": 1628,
      "东": 1629,
      "丝": 1630,
      "丟": 1631,
      "両": 1632,
      "严": 1633,
      "並": 1634,
      "个": 1635,
      "中": 1636,
      "丰": 1637,
      "临": 1638,
      "丸": 1639,
      "为": 1640,
      "主": 1641,
      "乃": 1642,
      "久": 1643,
      "义": 1644,
      "之": 1645,
      "乐": 1646,
      "乔": 1647,
      "乗": 1648,
      "乙": 1649,
      "九": 1650,
      "也": 1651,
      "书": 1652,
      "乱": 1653,
      "乾": 1654,
      "亀": 1655,
      "亂": 1656,
      "了": 1657,
      "予": 1658,
      "争": 1659,
      "事": 1660,
      "二": 1661,
      "于": 1662,
      "亐": 1663,
      "云": 1664,
      "五": 1665,
      "井": 1666,
      "亚": 1667,
      "些": 1668,
      "亜": 1669,
      "亡": 1670,
      "交": 1671,
      "享": 1672,
      "京": 1673,
      "亲": 1674,
      "人": 1675,
      "亻": 1676,
      "仁": 1677,
      "仆": 1678,
      "今": 1679,
      "介": 1680,
      "从": 1681,
      "仕": 1682,
      "他": 1683,
      "付": 1684,
      "代": 1685,
      "令": 1686,
      "以": 1687,
      "们": 1688,
      "仲": 1689,
      "件": 1690,
      "价": 1691,
      "任": 1692,
      "伊": 1693,
      "众": 1694,
      "会": 1695,
      "伝": 1696,
      "伟": 1697,
      "伤": 1698,
      "伯": 1699,
      "伸": 1700,
      "似": 1701,
      "伽": 1702,
      "佇": 1703,
      "位": 1704,
      "低": 1705,
      "住": 1706,
      "佐": 1707,
      "佑": 1708,
      "体": 1709,
      "何": 1710,
      "佗": 1711,
      "余": 1712,
      "佛": 1713,
      "作": 1714,
      "你": 1715,
      "佳": 1716,
      "併": 1717,
      "使": 1718,
      "來": 1719,
      "例": 1720,
      "侏": 1721,
      "供": 1722,
      "依": 1723,
      "価": 1724,
      "侵": 1725,
      "便": 1726,
      "係": 1727,
      "俊": 1728,
      "俗": 1729,
      "保": 1730,
      "信": 1731,
      "修": 1732,
      "俯": 1733,
      "俳": 1734,
      "俺": 1735,
      "個": 1736,
      "倍": 1737,
      "候": 1738,
      "借": 1739,
      "値": 1740,
      "倭": 1741,
      "倾": 1742,
      "假": 1743,
      "停": 1744,
      "健": 1745,
      "側": 1746,
      "偷": 1747,
      "傑": 1748,
      "備": 1749,
      "傷": 1750,
      "傻": 1751,
      "傾": 1752,
      "働": 1753,
      "像": 1754,
      "僕": 1755,
      "僚": 1756,
      "儀": 1757,
      "儒": 1758,
      "優": 1759,
      "儿": 1760,
      "元": 1761,
      "充": 1762,
      "先": 1763,
      "光": 1764,
      "克": 1765,
      "兖": 1766,
      "党": 1767,
      "入": 1768,
      "內": 1769,
      "全": 1770,
      "兩": 1771,
      "八": 1772,
      "公": 1773,
      "六": 1774,
      "兮": 1775,
      "共": 1776,
      "关": 1777,
      "兵": 1778,
      "其": 1779,
      "具": 1780,
      "典": 1781,
      "兽": 1782,
      "内": 1783,
      "円": 1784,
      "再": 1785,
      "冒": 1786,
      "写": 1787,
      "军": 1788,
      "农": 1789,
      "冠": 1790,
      "冬": 1791,
      "冷": 1792,
      "凄": 1793,
      "凌": 1794,
      "凍": 1795,
      "几": 1796,
      "処": 1797,
      "凯": 1798,
      "出": 1799,
      "击": 1800,
      "凿": 1801,
      "刀": 1802,
      "分": 1803,
      "切": 1804,
      "刊": 1805,
      "列": 1806,
      "刘": 1807,
      "则": 1808,
      "初": 1809,
      "判": 1810,
      "別": 1811,
      "利": 1812,
      "别": 1813,
      "到": 1814,
      "制": 1815,
      "刹": 1816,
      "刺": 1817,
      "刻": 1818,
      "則": 1819,
      "前": 1820,
      "剥": 1821,
      "剩": 1822,
      "副": 1823,
      "剰": 1824,
      "割": 1825,
      "創": 1826,
      "劇": 1827,
      "劈": 1828,
      "劉": 1829,
      "力": 1830,
      "劝": 1831,
      "功": 1832,
      "加": 1833,
      "动": 1834,
      "助": 1835,
      "励": 1836,
      "労": 1837,
      "効": 1838,
      "勇": 1839,
      "動": 1840,
      "務": 1841,
      "勝": 1842,
      "勞": 1843,
      "勢": 1844,
      "匂": 1845,
      "包": 1846,
      "化": 1847,
      "北": 1848,
      "匣": 1849,
      "匹": 1850,
      "区": 1851,
      "匿": 1852,
      "區": 1853,
      "十": 1854,
      "千": 1855,
      "升": 1856,
      "午": 1857,
      "半": 1858,
      "华": 1859,
      "卒": 1860,
      "協": 1861,
      "南": 1862,
      "単": 1863,
      "博": 1864,
      "占": 1865,
      "卫": 1866,
      "印": 1867,
      "危": 1868,
      "即": 1869,
      "却": 1870,
      "卿": 1871,
      "压": 1872,
      "厚": 1873,
      "原": 1874,
      "去": 1875,
      "县": 1876,
      "参": 1877,
      "又": 1878,
      "及": 1879,
      "友": 1880,
      "双": 1881,
      "反": 1882,
      "収": 1883,
      "发": 1884,
      "取": 1885,
      "受": 1886,
      "变": 1887,
      "口": 1888,
      "古": 1889,
      "句": 1890,
      "叩": 1891,
      "只": 1892,
      "叫": 1893,
      "召": 1894,
      "叭": 1895,
      "可": 1896,
      "台": 1897,
      "史": 1898,
      "右": 1899,
      "叶": 1900,
      "号": 1901,
      "司": 1902,
      "吃": 1903,
      "各": 1904,
      "合": 1905,
      "吉": 1906,
      "同": 1907,
      "名": 1908,
      "后": 1909,
      "吏": 1910,
      "吐": 1911,
      "向": 1912,
      "君": 1913,
      "吟": 1914,
      "否": 1915,
      "吧": 1916,
      "含": 1917,
      "吳": 1918,
      "吴": 1919,
      "吹": 1920,
      "吾": 1921,
      "呂": 1922,
      "呈": 1923,
      "告": 1924,
      "呟": 1925,
      "呢": 1926,
      "周": 1927,
      "味": 1928,
      "呼": 1929,
      "命": 1930,
      "和": 1931,
      "咲": 1932,
      "品": 1933,
      "哉": 1934,
      "員": 1935,
      "哥": 1936,
      "哲": 1937,
      "唆": 1938,
      "唇": 1939,
      "唐": 1940,
      "唱": 1941,
      "問": 1942,
      "善": 1943,
      "喚": 1944,
      "喜": 1945,
      "喪": 1946,
      "喵": 1947,
      "営": 1948,
      "嗚": 1949,
      "嘴": 1950,
      "噛": 1951,
      "器": 1952,
      "噺": 1953,
      "囗": 1954,
      "四": 1955,
      "回": 1956,
      "因": 1957,
      "团": 1958,
      "団": 1959,
      "困": 1960,
      "囲": 1961,
      "図": 1962,
      "固": 1963,
      "国": 1964,
      "图": 1965,
      "圆": 1966,
      "國": 1967,
      "圍": 1968,
      "園": 1969,
      "圖": 1970,
      "團": 1971,
      "土": 1972,
      "圣": 1973,
      "圧": 1974,
      "在": 1975,
      "地": 1976,
      "场": 1977,
      "圾": 1978,
      "坂": 1979,
      "坝": 1980,
      "垂": 1981,
      "垃": 1982,
      "型": 1983,
      "垢": 1984,
      "垦": 1985,
      "城": 1986,
      "域": 1987,
      "執": 1988,
      "基": 1989,
      "埼": 1990,
      "堂": 1991,
      "堅": 1992,
      "堪": 1993,
      "報": 1994,
      "場": 1995,
      "境": 1996,
      "増": 1997,
      "墟": 1998,
      "墮": 1999,
      "墳": 2000,
      "壁": 2001,
      "壊": 2002,
      "壩": 2003,
      "士": 2004,
      "声": 2005,
      "売": 2006,
      "変": 2007,
      "夏": 2008,
      "外": 2009,
      "多": 2010,
      "夜": 2011,
      "夢": 2012,
      "大": 2013,
      "天": 2014,
      "太": 2015,
      "夫": 2016,
      "央": 2017,
      "失": 2018,
      "头": 2019,
      "夷": 2020,
      "奇": 2021,
      "奈": 2022,
      "奏": 2023,
      "奖": 2024,
      "套": 2025,
      "奥": 2026,
      "奮": 2027,
      "女": 2028,
      "奴": 2029,
      "她": 2030,
      "好": 2031,
      "如": 2032,
      "妃": 2033,
      "妈": 2034,
      "妙": 2035,
      "妹": 2036,
      "妻": 2037,
      "始": 2038,
      "姓": 2039,
      "委": 2040,
      "姥": 2041,
      "姿": 2042,
      "娇": 2043,
      "媒": 2044,
      "嫌": 2045,
      "嫖": 2046,
      "嬉": 2047,
      "嬪": 2048,
      "子": 2049,
      "孔": 2050,
      "存": 2051,
      "孙": 2052,
      "孝": 2053,
      "季": 2054,
      "学": 2055,
      "孩": 2056,
      "孫": 2057,
      "學": 2058,
      "宅": 2059,
      "宇": 2060,
      "守": 2061,
      "安": 2062,
      "宋": 2063,
      "完": 2064,
      "宗": 2065,
      "官": 2066,
      "宙": 2067,
      "定": 2068,
      "宛": 2069,
      "宝": 2070,
      "实": 2071,
      "実": 2072,
      "审": 2073,
      "客": 2074,
      "宣": 2075,
      "室": 2076,
      "宮": 2077,
      "宰": 2078,
      "害": 2079,
      "宴": 2080,
      "宵": 2081,
      "家": 2082,
      "容": 2083,
      "寄": 2084,
      "密": 2085,
      "寇": 2086,
      "富": 2087,
      "寒": 2088,
      "察": 2089,
      "實": 2090,
      "寧": 2091,
      "審": 2092,
      "寮": 2093,
      "寶": 2094,
      "对": 2095,
      "导": 2096,
      "対": 2097,
      "封": 2098,
      "専": 2099,
      "射": 2100,
      "将": 2101,
      "將": 2102,
      "尊": 2103,
      "小": 2104,
      "少": 2105,
      "尚": 2106,
      "就": 2107,
      "尽": 2108,
      "尾": 2109,
      "局": 2110,
      "居": 2111,
      "屈": 2112,
      "届": 2113,
      "屋": 2114,
      "属": 2115,
      "履": 2116,
      "屬": 2117,
      "山": 2118,
      "岡": 2119,
      "岩": 2120,
      "岳": 2121,
      "峠": 2122,
      "峪": 2123,
      "峰": 2124,
      "島": 2125,
      "崇": 2126,
      "崎": 2127,
      "崩": 2128,
      "崽": 2129,
      "嵐": 2130,
      "嶋": 2131,
      "嶽": 2132,
      "川": 2133,
      "州": 2134,
      "巡": 2135,
      "工": 2136,
      "左": 2137,
      "巧": 2138,
      "巨": 2139,
      "差": 2140,
      "己": 2141,
      "已": 2142,
      "巴": 2143,
      "巻": 2144,
      "巾": 2145,
      "市": 2146,
      "布": 2147,
      "希": 2148,
      "帝": 2149,
      "帥": 2150,
      "師": 2151,
      "席": 2152,
      "帯": 2153,
      "帰": 2154,
      "帶": 2155,
      "常": 2156,
      "帽": 2157,
      "幅": 2158,
      "幕": 2159,
      "平": 2160,
      "年": 2161,
      "幸": 2162,
      "幾": 2163,
      "广": 2164,
      "庁": 2165,
      "広": 2166,
      "庄": 2167,
      "庆": 2168,
      "库": 2169,
      "底": 2170,
      "府": 2171,
      "度": 2172,
      "座": 2173,
      "庫": 2174,
      "庭": 2175,
      "庶": 2176,
      "康": 2177,
      "廃": 2178,
      "廊": 2179,
      "廖": 2180,
      "廠": 2181,
      "建": 2182,
      "开": 2183,
      "弁": 2184,
      "式": 2185,
      "引": 2186,
      "弟": 2187,
      "张": 2188,
      "弥": 2189,
      "張": 2190,
      "強": 2191,
      "强": 2192,
      "弾": 2193,
      "当": 2194,
      "形": 2195,
      "彩": 2196,
      "彰": 2197,
      "影": 2198,
      "役": 2199,
      "彼": 2200,
      "征": 2201,
      "待": 2202,
      "很": 2203,
      "律": 2204,
      "後": 2205,
      "徐": 2206,
      "徒": 2207,
      "得": 2208,
      "從": 2209,
      "御": 2210,
      "微": 2211,
      "徳": 2212,
      "徵": 2213,
      "德": 2214,
      "心": 2215,
      "必": 2216,
      "忍": 2217,
      "志": 2218,
      "忘": 2219,
      "忙": 2220,
      "応": 2221,
      "忠": 2222,
      "快": 2223,
      "念": 2224,
      "怀": 2225,
      "态": 2226,
      "怒": 2227,
      "怕": 2228,
      "思": 2229,
      "怡": 2230,
      "性": 2231,
      "怪": 2232,
      "总": 2233,
      "恋": 2234,
      "恐": 2235,
      "恢": 2236,
      "恥": 2237,
      "恩": 2238,
      "恭": 2239,
      "息": 2240,
      "恶": 2241,
      "悟": 2242,
      "悪": 2243,
      "情": 2244,
      "惑": 2245,
      "惜": 2246,
      "惠": 2247,
      "惡": 2248,
      "想": 2249,
      "惺": 2250,
      "愉": 2251,
      "意": 2252,
      "愕": 2253,
      "愚": 2254,
      "愛": 2255,
      "感": 2256,
      "慈": 2257,
      "態": 2258,
      "慮": 2259,
      "慰": 2260,
      "慶": 2261,
      "憤": 2262,
      "憧": 2263,
      "憬": 2264,
      "憶": 2265,
      "憾": 2266,
      "應": 2267,
      "懸": 2268,
      "懿": 2269,
      "戏": 2270,
      "成": 2271,
      "我": 2272,
      "戒": 2273,
      "或": 2274,
      "戟": 2275,
      "戦": 2276,
      "戴": 2277,
      "戻": 2278,
      "房": 2279,
      "所": 2280,
      "扉": 2281,
      "手": 2282,
      "才": 2283,
      "扒": 2284,
      "打": 2285,
      "扱": 2286,
      "批": 2287,
      "承": 2288,
      "技": 2289,
      "把": 2290,
      "抑": 2291,
      "抓": 2292,
      "投": 2293,
      "抗": 2294,
      "折": 2295,
      "抜": 2296,
      "抢": 2297,
      "护": 2298,
      "披": 2299,
      "抱": 2300,
      "抵": 2301,
      "押": 2302,
      "担": 2303,
      "拉": 2304,
      "拍": 2305,
      "拒": 2306,
      "拘": 2307,
      "招": 2308,
      "拠": 2309,
      "拭": 2310,
      "拿": 2311,
      "持": 2312,
      "指": 2313,
      "挝": 2314,
      "振": 2315,
      "捉": 2316,
      "捕": 2317,
      "捜": 2318,
      "换": 2319,
      "捨": 2320,
      "据": 2321,
      "掀": 2322,
      "排": 2323,
      "採": 2324,
      "探": 2325,
      "接": 2326,
      "控": 2327,
      "推": 2328,
      "掲": 2329,
      "揃": 2330,
      "揍": 2331,
      "提": 2332,
      "握": 2333,
      "揺": 2334,
      "損": 2335,
      "搞": 2336,
      "搶": 2337,
      "携": 2338,
      "摂": 2339,
      "摘": 2340,
      "撃": 2341,
      "撒": 2342,
      "播": 2343,
      "撮": 2344,
      "撾": 2345,
      "支": 2346,
      "收": 2347,
      "改": 2348,
      "攻": 2349,
      "放": 2350,
      "政": 2351,
      "故": 2352,
      "救": 2353,
      "教": 2354,
      "敢": 2355,
      "散": 2356,
      "敬": 2357,
      "数": 2358,
      "整": 2359,
      "敵": 2360,
      "敷": 2361,
      "文": 2362,
      "斉": 2363,
      "斌": 2364,
      "斗": 2365,
      "料": 2366,
      "斜": 2367,
      "断": 2368,
      "新": 2369,
      "方": 2370,
      "於": 2371,
      "施": 2372,
      "旅": 2373,
      "旋": 2374,
      "族": 2375,
      "旗": 2376,
      "无": 2377,
      "既": 2378,
      "日": 2379,
      "早": 2380,
      "时": 2381,
      "昆": 2382,
      "昇": 2383,
      "昌": 2384,
      "明": 2385,
      "易": 2386,
      "星": 2387,
      "映": 2388,
      "春": 2389,
      "昨": 2390,
      "昭": 2391,
      "是": 2392,
      "時": 2393,
      "晉": 2394,
      "晋": 2395,
      "晒": 2396,
      "晩": 2397,
      "普": 2398,
      "景": 2399,
      "晴": 2400,
      "晶": 2401,
      "智": 2402,
      "暫": 2403,
      "暮": 2404,
      "暴": 2405,
      "曙": 2406,
      "曰": 2407,
      "曲": 2408,
      "更": 2409,
      "書": 2410,
      "曾": 2411,
      "替": 2412,
      "最": 2413,
      "會": 2414,
      "月": 2415,
      "有": 2416,
      "朋": 2417,
      "服": 2418,
      "朗": 2419,
      "望": 2420,
      "朝": 2421,
      "期": 2422,
      "木": 2423,
      "未": 2424,
      "末": 2425,
      "本": 2426,
      "朱": 2427,
      "机": 2428,
      "权": 2429,
      "李": 2430,
      "材": 2431,
      "村": 2432,
      "束": 2433,
      "条": 2434,
      "来": 2435,
      "杯": 2436,
      "杰": 2437,
      "東": 2438,
      "松": 2439,
      "板": 2440,
      "析": 2441,
      "林": 2442,
      "枘": 2443,
      "枚": 2444,
      "果": 2445,
      "枝": 2446,
      "架": 2447,
      "柄": 2448,
      "染": 2449,
      "查": 2450,
      "柯": 2451,
      "柱": 2452,
      "柴": 2453,
      "査": 2454,
      "栄": 2455,
      "标": 2456,
      "校": 2457,
      "株": 2458,
      "核": 2459,
      "根": 2460,
      "格": 2461,
      "桂": 2462,
      "桃": 2463,
      "案": 2464,
      "桜": 2465,
      "桥": 2466,
      "梁": 2467,
      "梓": 2468,
      "械": 2469,
      "棄": 2470,
      "棠": 2471,
      "森": 2472,
      "椅": 2473,
      "検": 2474,
      "楊": 2475,
      "楚": 2476,
      "業": 2477,
      "極": 2478,
      "楽": 2479,
      "榜": 2480,
      "榮": 2481,
      "構": 2482,
      "様": 2483,
      "樂": 2484,
      "樓": 2485,
      "標": 2486,
      "模": 2487,
      "横": 2488,
      "樹": 2489,
      "樺": 2490,
      "橋": 2491,
      "機": 2492,
      "次": 2493,
      "欲": 2494,
      "欺": 2495,
      "欽": 2496,
      "歉": 2497,
      "歌": 2498,
      "歓": 2499,
      "止": 2500,
      "正": 2501,
      "此": 2502,
      "武": 2503,
      "歩": 2504,
      "歪": 2505,
      "歯": 2506,
      "歲": 2507,
      "歳": 2508,
      "歴": 2509,
      "死": 2510,
      "殊": 2511,
      "残": 2512,
      "段": 2513,
      "殺": 2514,
      "殿": 2515,
      "毎": 2516,
      "比": 2517,
      "毕": 2518,
      "毘": 2519,
      "毛": 2520,
      "氏": 2521,
      "民": 2522,
      "气": 2523,
      "気": 2524,
      "氣": 2525,
      "水": 2526,
      "氷": 2527,
      "永": 2528,
      "求": 2529,
      "汚": 2530,
      "汝": 2531,
      "江": 2532,
      "池": 2533,
      "決": 2534,
      "汽": 2535,
      "沃": 2536,
      "沈": 2537,
      "沒": 2538,
      "沙": 2539,
      "没": 2540,
      "河": 2541,
      "沸": 2542,
      "治": 2543,
      "沿": 2544,
      "況": 2545,
      "泉": 2546,
      "法": 2547,
      "波": 2548,
      "泣": 2549,
      "泥": 2550,
      "注": 2551,
      "泰": 2552,
      "泳": 2553,
      "洋": 2554,
      "洗": 2555,
      "津": 2556,
      "洪": 2557,
      "洱": 2558,
      "活": 2559,
      "派": 2560,
      "流": 2561,
      "浜": 2562,
      "浦": 2563,
      "浪": 2564,
      "浮": 2565,
      "浴": 2566,
      "海": 2567,
      "消": 2568,
      "涙": 2569,
      "涛": 2570,
      "涧": 2571,
      "涯": 2572,
      "淑": 2573,
      "淡": 2574,
      "淨": 2575,
      "深": 2576,
      "淳": 2577,
      "混": 2578,
      "添": 2579,
      "清": 2580,
      "渓": 2581,
      "減": 2582,
      "渡": 2583,
      "渦": 2584,
      "温": 2585,
      "測": 2586,
      "港": 2587,
      "游": 2588,
      "渾": 2589,
      "湖": 2590,
      "湛": 2591,
      "湯": 2592,
      "湾": 2593,
      "湿": 2594,
      "満": 2595,
      "源": 2596,
      "準": 2597,
      "溢": 2598,
      "滅": 2599,
      "滑": 2600,
      "满": 2601,
      "滩": 2602,
      "滲": 2603,
      "漁": 2604,
      "漏": 2605,
      "演": 2606,
      "漠": 2607,
      "漢": 2608,
      "漫": 2609,
      "漯": 2610,
      "潜": 2611,
      "潤": 2612,
      "潰": 2613,
      "激": 2614,
      "濃": 2615,
      "濟": 2616,
      "濡": 2617,
      "濱": 2618,
      "濺": 2619,
      "瀚": 2620,
      "灘": 2621,
      "灣": 2622,
      "火": 2623,
      "炁": 2624,
      "炎": 2625,
      "点": 2626,
      "為": 2627,
      "烈": 2628,
      "焉": 2629,
      "焚": 2630,
      "無": 2631,
      "焦": 2632,
      "然": 2633,
      "焼": 2634,
      "照": 2635,
      "煽": 2636,
      "熱": 2637,
      "燃": 2638,
      "燕": 2639,
      "營": 2640,
      "燮": 2641,
      "爆": 2642,
      "爲": 2643,
      "爷": 2644,
      "牆": 2645,
      "片": 2646,
      "版": 2647,
      "牌": 2648,
      "牛": 2649,
      "物": 2650,
      "牲": 2651,
      "特": 2652,
      "犠": 2653,
      "犬": 2654,
      "犯": 2655,
      "状": 2656,
      "狂": 2657,
      "狗": 2658,
      "猛": 2659,
      "猫": 2660,
      "献": 2661,
      "獨": 2662,
      "獲": 2663,
      "獸": 2664,
      "獻": 2665,
      "玄": 2666,
      "率": 2667,
      "玉": 2668,
      "王": 2669,
      "玩": 2670,
      "现": 2671,
      "珍": 2672,
      "現": 2673,
      "球": 2674,
      "琅": 2675,
      "理": 2676,
      "琉": 2677,
      "琊": 2678,
      "琪": 2679,
      "琴": 2680,
      "琼": 2681,
      "瑋": 2682,
      "瑛": 2683,
      "瑞": 2684,
      "環": 2685,
      "瓊": 2686,
      "瓶": 2687,
      "生": 2688,
      "用": 2689,
      "田": 2690,
      "由": 2691,
      "甲": 2692,
      "申": 2693,
      "男": 2694,
      "町": 2695,
      "画": 2696,
      "界": 2697,
      "畜": 2698,
      "略": 2699,
      "番": 2700,
      "異": 2701,
      "疆": 2702,
      "疑": 2703,
      "疲": 2704,
      "病": 2705,
      "症": 2706,
      "痛": 2707,
      "癒": 2708,
      "発": 2709,
      "登": 2710,
      "白": 2711,
      "百": 2712,
      "皃": 2713,
      "的": 2714,
      "皆": 2715,
      "皇": 2716,
      "皮": 2717,
      "益": 2718,
      "监": 2719,
      "盛": 2720,
      "盟": 2721,
      "監": 2722,
      "盤": 2723,
      "目": 2724,
      "直": 2725,
      "相": 2726,
      "盾": 2727,
      "省": 2728,
      "看": 2729,
      "県": 2730,
      "真": 2731,
      "眺": 2732,
      "眼": 2733,
      "眾": 2734,
      "着": 2735,
      "督": 2736,
      "睿": 2737,
      "瞎": 2738,
      "瞑": 2739,
      "瞬": 2740,
      "瞰": 2741,
      "瞳": 2742,
      "矛": 2743,
      "矢": 2744,
      "知": 2745,
      "短": 2746,
      "矮": 2747,
      "石": 2748,
      "砂": 2749,
      "研": 2750,
      "破": 2751,
      "硬": 2752,
      "碑": 2753,
      "確": 2754,
      "碼": 2755,
      "礁": 2756,
      "示": 2757,
      "社": 2758,
      "祈": 2759,
      "祐": 2760,
      "祝": 2761,
      "神": 2762,
      "祥": 2763,
      "票": 2764,
      "祭": 2765,
      "祺": 2766,
      "禁": 2767,
      "福": 2768,
      "禕": 2769,
      "禧": 2770,
      "禮": 2771,
      "离": 2772,
      "禾": 2773,
      "秀": 2774,
      "私": 2775,
      "秋": 2776,
      "种": 2777,
      "科": 2778,
      "秒": 2779,
      "秘": 2780,
      "称": 2781,
      "移": 2782,
      "程": 2783,
      "稍": 2784,
      "税": 2785,
      "種": 2786,
      "稲": 2787,
      "稻": 2788,
      "稽": 2789,
      "稿": 2790,
      "積": 2791,
      "穏": 2792,
      "究": 2793,
      "空": 2794,
      "窝": 2795,
      "立": 2796,
      "站": 2797,
      "竜": 2798,
      "端": 2799,
      "竹": 2800,
      "笑": 2801,
      "符": 2802,
      "第": 2803,
      "筆": 2804,
      "等": 2805,
      "答": 2806,
      "简": 2807,
      "管": 2808,
      "箱": 2809,
      "節": 2810,
      "範": 2811,
      "簡": 2812,
      "簾": 2813,
      "籍": 2814,
      "米": 2815,
      "类": 2816,
      "粉": 2817,
      "粋": 2818,
      "粵": 2819,
      "精": 2820,
      "系": 2821,
      "紀": 2822,
      "約": 2823,
      "純": 2824,
      "紙": 2825,
      "級": 2826,
      "紛": 2827,
      "素": 2828,
      "索": 2829,
      "紫": 2830,
      "累": 2831,
      "細": 2832,
      "紹": 2833,
      "終": 2834,
      "組": 2835,
      "絆": 2836,
      "経": 2837,
      "結": 2838,
      "絞": 2839,
      "絡": 2840,
      "給": 2841,
      "統": 2842,
      "絵": 2843,
      "絶": 2844,
      "經": 2845,
      "継": 2846,
      "続": 2847,
      "維": 2848,
      "網": 2849,
      "綺": 2850,
      "緑": 2851,
      "緒": 2852,
      "線": 2853,
      "締": 2854,
      "編": 2855,
      "緩": 2856,
      "緯": 2857,
      "練": 2858,
      "總": 2859,
      "繁": 2860,
      "繋": 2861,
      "繭": 2862,
      "繰": 2863,
      "纏": 2864,
      "红": 2865,
      "纪": 2866,
      "纯": 2867,
      "线": 2868,
      "结": 2869,
      "绥": 2870,
      "维": 2871,
      "综": 2872,
      "缩": 2873,
      "缽": 2874,
      "网": 2875,
      "罗": 2876,
      "罠": 2877,
      "罪": 2878,
      "置": 2879,
      "羅": 2880,
      "羊": 2881,
      "美": 2882,
      "群": 2883,
      "義": 2884,
      "羽": 2885,
      "翌": 2886,
      "習": 2887,
      "翻": 2888,
      "翼": 2889,
      "耀": 2890,
      "老": 2891,
      "考": 2892,
      "者": 2893,
      "而": 2894,
      "耐": 2895,
      "耕": 2896,
      "聋": 2897,
      "联": 2898,
      "聖": 2899,
      "聞": 2900,
      "聯": 2901,
      "職": 2902,
      "聽": 2903,
      "肇": 2904,
      "肉": 2905,
      "肋": 2906,
      "肌": 2907,
      "肏": 2908,
      "肝": 2909,
      "背": 2910,
      "胡": 2911,
      "胸": 2912,
      "能": 2913,
      "脈": 2914,
      "脚": 2915,
      "脩": 2916,
      "脱": 2917,
      "脳": 2918,
      "腕": 2919,
      "腚": 2920,
      "腰": 2921,
      "腺": 2922,
      "膝": 2923,
      "膳": 2924,
      "臓": 2925,
      "臣": 2926,
      "臥": 2927,
      "臨": 2928,
      "自": 2929,
      "臭": 2930,
      "至": 2931,
      "致": 2932,
      "舆": 2933,
      "興": 2934,
      "舊": 2935,
      "舌": 2936,
      "舞": 2937,
      "航": 2938,
      "般": 2939,
      "良": 2940,
      "色": 2941,
      "节": 2942,
      "芝": 2943,
      "花": 2944,
      "芸": 2945,
      "苏": 2946,
      "若": 2947,
      "苦": 2948,
      "英": 2949,
      "茂": 2950,
      "范": 2951,
      "茨": 2952,
      "茶": 2953,
      "草": 2954,
      "荒": 2955,
      "荷": 2956,
      "莉": 2957,
      "莫": 2958,
      "菊": 2959,
      "菩": 2960,
      "華": 2961,
      "菲": 2962,
      "萄": 2963,
      "萬": 2964,
      "落": 2965,
      "葉": 2966,
      "著": 2967,
      "葡": 2968,
      "葬": 2969,
      "蒜": 2970,
      "蓋": 2971,
      "蓝": 2972,
      "蔑": 2973,
      "蔡": 2974,
      "蔵": 2975,
      "蔽": 2976,
      "蕃": 2977,
      "薄": 2978,
      "薇": 2979,
      "藏": 2980,
      "藤": 2981,
      "藥": 2982,
      "蘇": 2983,
      "蘭": 2984,
      "虐": 2985,
      "處": 2986,
      "虚": 2987,
      "號": 2988,
      "蚕": 2989,
      "蛇": 2990,
      "蛛": 2991,
      "蜘": 2992,
      "蝶": 2993,
      "融": 2994,
      "蟠": 2995,
      "蟹": 2996,
      "蠛": 2997,
      "蠻": 2998,
      "血": 2999,
      "衆": 3000,
      "行": 3001,
      "術": 3002,
      "街": 3003,
      "衛": 3004,
      "衝": 3005,
      "衡": 3006,
      "衣": 3007,
      "表": 3008,
      "袖": 3009,
      "被": 3010,
      "裁": 3011,
      "裂": 3012,
      "装": 3013,
      "裏": 3014,
      "補": 3015,
      "裳": 3016,
      "裴": 3017,
      "裸": 3018,
      "製": 3019,
      "複": 3020,
      "褐": 3021,
      "襲": 3022,
      "西": 3023,
      "要": 3024,
      "覆": 3025,
      "見": 3026,
      "規": 3027,
      "視": 3028,
      "覚": 3029,
      "覧": 3030,
      "親": 3031,
      "観": 3032,
      "覺": 3033,
      "视": 3034,
      "角": 3035,
      "解": 3036,
      "言": 3037,
      "計": 3038,
      "討": 3039,
      "託": 3040,
      "記": 3041,
      "訪": 3042,
      "設": 3043,
      "許": 3044,
      "訳": 3045,
      "訴": 3046,
      "証": 3047,
      "詐": 3048,
      "詞": 3049,
      "試": 3050,
      "話": 3051,
      "該": 3052,
      "詳": 3053,
      "誇": 3054,
      "認": 3055,
      "誐": 3056,
      "誕": 3057,
      "誘": 3058,
      "語": 3059,
      "誤": 3060,
      "説": 3061,
      "読": 3062,
      "誰": 3063,
      "調": 3064,
      "請": 3065,
      "諏": 3066,
      "論": 3067,
      "諦": 3068,
      "諸": 3069,
      "謂": 3070,
      "謎": 3071,
      "謝": 3072,
      "謨": 3073,
      "識": 3074,
      "警": 3075,
      "譯": 3076,
      "議": 3077,
      "譲": 3078,
      "護": 3079,
      "變": 3080,
      "讚": 3081,
      "计": 3082,
      "认": 3083,
      "让": 3084,
      "许": 3085,
      "论": 3086,
      "证": 3087,
      "试": 3088,
      "语": 3089,
      "误": 3090,
      "说": 3091,
      "请": 3092,
      "读": 3093,
      "谐": 3094,
      "谢": 3095,
      "谴": 3096,
      "谷": 3097,
      "象": 3098,
      "貍": 3099,
      "貓": 3100,
      "貞": 3101,
      "負": 3102,
      "財": 3103,
      "貢": 3104,
      "販": 3105,
      "責": 3106,
      "貴": 3107,
      "買": 3108,
      "貼": 3109,
      "資": 3110,
      "賑": 3111,
      "賛": 3112,
      "賞": 3113,
      "賢": 3114,
      "質": 3115,
      "賴": 3116,
      "责": 3117,
      "贩": 3118,
      "费": 3119,
      "赤": 3120,
      "走": 3121,
      "赵": 3122,
      "起": 3123,
      "超": 3124,
      "越": 3125,
      "趙": 3126,
      "足": 3127,
      "跃": 3128,
      "跋": 3129,
      "跑": 3130,
      "距": 3131,
      "跡": 3132,
      "路": 3133,
      "跳": 3134,
      "踏": 3135,
      "踒": 3136,
      "蹦": 3137,
      "躇": 3138,
      "躊": 3139,
      "躍": 3140,
      "身": 3141,
      "躯": 3142,
      "車": 3143,
      "軍": 3144,
      "転": 3145,
      "軽": 3146,
      "較": 3147,
      "載": 3148,
      "輩": 3149,
      "轨": 3150,
      "转": 3151,
      "辛": 3152,
      "辭": 3153,
      "農": 3154,
      "辺": 3155,
      "込": 3156,
      "达": 3157,
      "迂": 3158,
      "迎": 3159,
      "运": 3160,
      "近": 3161,
      "返": 3162,
      "还": 3163,
      "这": 3164,
      "远": 3165,
      "违": 3166,
      "连": 3167,
      "迤": 3168,
      "迦": 3169,
      "述": 3170,
      "迷": 3171,
      "追": 3172,
      "退": 3173,
      "送": 3174,
      "逃": 3175,
      "逆": 3176,
      "透": 3177,
      "途": 3178,
      "逗": 3179,
      "通": 3180,
      "速": 3181,
      "造": 3182,
      "連": 3183,
      "週": 3184,
      "進": 3185,
      "逶": 3186,
      "逸": 3187,
      "遂": 3188,
      "遅": 3189,
      "遇": 3190,
      "遊": 3191,
      "遍": 3192,
      "過": 3193,
      "道": 3194,
      "達": 3195,
      "違": 3196,
      "遠": 3197,
      "遥": 3198,
      "適": 3199,
      "遭": 3200,
      "遮": 3201,
      "遲": 3202,
      "遺": 3203,
      "避": 3204,
      "還": 3205,
      "邊": 3206,
      "邑": 3207,
      "邓": 3208,
      "那": 3209,
      "邦": 3210,
      "邪": 3211,
      "郊": 3212,
      "郎": 3213,
      "郑": 3214,
      "部": 3215,
      "郭": 3216,
      "都": 3217,
      "鄉": 3218,
      "酉": 3219,
      "配": 3220,
      "酷": 3221,
      "醬": 3222,
      "釈": 3223,
      "里": 3224,
      "重": 3225,
      "野": 3226,
      "量": 3227,
      "金": 3228,
      "釗": 3229,
      "鈴": 3230,
      "鉄": 3231,
      "鉅": 3232,
      "銀": 3233,
      "銘": 3234,
      "鋼": 3235,
      "錢": 3236,
      "錫": 3237,
      "錯": 3238,
      "録": 3239,
      "鎖": 3240,
      "鏞": 3241,
      "鑑": 3242,
      "钟": 3243,
      "钱": 3244,
      "锋": 3245,
      "镇": 3246,
      "長": 3247,
      "长": 3248,
      "門": 3249,
      "閉": 3250,
      "開": 3251,
      "間": 3252,
      "関": 3253,
      "閲": 3254,
      "閻": 3255,
      "闘": 3256,
      "關": 3257,
      "问": 3258,
      "闲": 3259,
      "阅": 3260,
      "阱": 3261,
      "防": 3262,
      "阳": 3263,
      "阴": 3264,
      "阻": 3265,
      "阿": 3266,
      "陀": 3267,
      "陆": 3268,
      "陈": 3269,
      "降": 3270,
      "限": 3271,
      "院": 3272,
      "除": 3273,
      "陥": 3274,
      "陰": 3275,
      "陳": 3276,
      "陵": 3277,
      "陷": 3278,
      "陸": 3279,
      "険": 3280,
      "陽": 3281,
      "隆": 3282,
      "隊": 3283,
      "隋": 3284,
      "階": 3285,
      "随": 3286,
      "隔": 3287,
      "際": 3288,
      "隠": 3289,
      "隣": 3290,
      "难": 3291,
      "雁": 3292,
      "雄": 3293,
      "雅": 3294,
      "集": 3295,
      "雇": 3296,
      "雉": 3297,
      "雑": 3298,
      "離": 3299,
      "難": 3300,
      "雨": 3301,
      "雪": 3302,
      "雲": 3303,
      "零": 3304,
      "雷": 3305,
      "電": 3306,
      "需": 3307,
      "霊": 3308,
      "露": 3309,
      "霸": 3310,
      "青": 3311,
      "静": 3312,
      "非": 3313,
      "靠": 3314,
      "面": 3315,
      "革": 3316,
      "靴": 3317,
      "韓": 3318,
      "音": 3319,
      "韻": 3320,
      "響": 3321,
      "頁": 3322,
      "頃": 3323,
      "項": 3324,
      "順": 3325,
      "須": 3326,
      "預": 3327,
      "領": 3328,
      "頬": 3329,
      "頭": 3330,
      "頼": 3331,
      "題": 3332,
      "顏": 3333,
      "顔": 3334,
      "願": 3335,
      "類": 3336,
      "顧": 3337,
      "顯": 3338,
      "顺": 3339,
      "频": 3340,
      "额": 3341,
      "風": 3342,
      "飛": 3343,
      "飞": 3344,
      "食": 3345,
      "飽": 3346,
      "養": 3347,
      "餐": 3348,
      "餘": 3349,
      "館": 3350,
      "饗": 3351,
      "馆": 3352,
      "馒": 3353,
      "首": 3354,
      "馬": 3355,
      "駅": 3356,
      "駈": 3357,
      "騒": 3358,
      "験": 3359,
      "驚": 3360,
      "驪": 3361,
      "马": 3362,
      "骨": 3363,
      "體": 3364,
      "高": 3365,
      "髢": 3366,
      "髪": 3367,
      "髻": 3368,
      "鬯": 3369,
      "鬼": 3370,
      "魂": 3371,
      "魅": 3372,
      "魏": 3373,
      "魔": 3374,
      "魚": 3375,
      "魯": 3376,
      "鮑": 3377,
      "鮮": 3378,
      "鱿": 3379,
      "鲍": 3380,
      "鲸": 3381,
      "鳴": 3382,
      "鴉": 3383,
      "鴻": 3384,
      "鶴": 3385,
      "鸞": 3386,
      "鸡": 3387,
      "鸦": 3388,
      "鸽": 3389,
      "鹑": 3390,
      "鹿": 3391,
      "麓": 3392,
      "麗": 3393,
      "麺": 3394,
      "麻": 3395,
      "黃": 3396,
      "黄": 3397,
      "黑": 3398,
      "黒": 3399,
      "默": 3400,
      "黙": 3401,
      "點": 3402,
      "鼓": 3403,
      "鼻": 3404,
      "齋": 3405,
      "齒": 3406,
      "齡": 3407,
      "龃": 3408,
      "龄": 3409,
      "龉": 3410,
      "龍": 3411,
      "龔": 3412,
      "龙": 3413,
      "ꜣ": 3414,
      "ꜥ": 3415,
      "ꦁ": 3416,
      "ꦂ": 3417,
      "ꦈ": 3418,
      "ꦏ": 3419,
      "ꦔ": 3420,
      "ꦛ": 3421,
      "ꦝ": 3422,
      "ꦟ": 3423,
      "ꦠ": 3424,
      "ꦢ": 3425,
      "ꦤ": 3426,
      "ꦥ": 3427,
      "ꦧ": 3428,
      "ꦩ": 3429,
      "ꦫ": 3430,
      "ꦭ": 3431,
      "ꦮ": 3432,
      "ꦱ": 3433,
      "ꦲ": 3434,
      "ꦴ": 3435,
      "ꦶ": 3436,
      "ꦸ": 3437,
      "ꦺ": 3438,
      "ꦼ": 3439,
      "꧀": 3440,
      "꧉": 3441,
      "꧋": 3442,
      "가": 3443,
      "각": 3444,
      "간": 3445,
      "갈": 3446,
      "감": 3447,
      "갑": 3448,
      "갔": 3449,
      "강": 3450,
      "같": 3451,
      "개": 3452,
      "걔": 3453,
      "거": 3454,
      "건": 3455,
      "걸": 3456,
      "검": 3457,
      "겁": 3458,
      "것": 3459,
      "게": 3460,
      "겠": 3461,
      "겨": 3462,
      "격": 3463,
      "견": 3464,
      "결": 3465,
      "겼": 3466,
      "경": 3467,
      "계": 3468,
      "고": 3469,
      "곡": 3470,
      "곧": 3471,
      "곰": 3472,
      "공": 3473,
      "과": 3474,
      "관": 3475,
      "광": 3476,
      "괴": 3477,
      "굉": 3478,
      "교": 3479,
      "구": 3480,
      "국": 3481,
      "군": 3482,
      "굴": 3483,
      "궁": 3484,
      "권": 3485,
      "귀": 3486,
      "규": 3487,
      "균": 3488,
      "그": 3489,
      "극": 3490,
      "근": 3491,
      "글": 3492,
      "금": 3493,
      "급": 3494,
      "기": 3495,
      "긴": 3496,
      "길": 3497,
      "김": 3498,
      "까": 3499,
      "깐": 3500,
      "꺼": 3501,
      "께": 3502,
      "꼭": 3503,
      "꼼": 3504,
      "꾀": 3505,
      "꾸": 3506,
      "꾼": 3507,
      "끄": 3508,
      "끌": 3509,
      "끔": 3510,
      "끝": 3511,
      "끼": 3512,
      "낀": 3513,
      "나": 3514,
      "난": 3515,
      "날": 3516,
      "남": 3517,
      "났": 3518,
      "낳": 3519,
      "내": 3520,
      "낸": 3521,
      "냈": 3522,
      "냐": 3523,
      "냥": 3524,
      "너": 3525,
      "널": 3526,
      "넓": 3527,
      "넘": 3528,
      "넣": 3529,
      "네": 3530,
      "넷": 3531,
      "녀": 3532,
      "년": 3533,
      "녔": 3534,
      "녕": 3535,
      "노": 3536,
      "녹": 3537,
      "농": 3538,
      "놓": 3539,
      "놔": 3540,
      "누": 3541,
      "눈": 3542,
      "뉴": 3543,
      "느": 3544,
      "는": 3545,
      "늘": 3546,
      "능": 3547,
      "니": 3548,
      "닌": 3549,
      "닐": 3550,
      "님": 3551,
      "다": 3552,
      "단": 3553,
      "달": 3554,
      "담": 3555,
      "당": 3556,
      "대": 3557,
      "댁": 3558,
      "더": 3559,
      "덕": 3560,
      "던": 3561,
      "데": 3562,
      "뎌": 3563,
      "도": 3564,
      "독": 3565,
      "돈": 3566,
      "돌": 3567,
      "돕": 3568,
      "동": 3569,
      "됐": 3570,
      "되": 3571,
      "된": 3572,
      "될": 3573,
      "두": 3574,
      "둘": 3575,
      "둬": 3576,
      "드": 3577,
      "득": 3578,
      "든": 3579,
      "듣": 3580,
      "들": 3581,
      "듯": 3582,
      "등": 3583,
      "디": 3584,
      "따": 3585,
      "딸": 3586,
      "때": 3587,
      "떠": 3588,
      "떤": 3589,
      "떳": 3590,
      "떻": 3591,
      "또": 3592,
      "뚝": 3593,
      "뚫": 3594,
      "뛰": 3595,
      "뜻": 3596,
      "라": 3597,
      "락": 3598,
      "란": 3599,
      "랄": 3600,
      "람": 3601,
      "랍": 3602,
      "랐": 3603,
      "랑": 3604,
      "래": 3605,
      "랜": 3606,
      "램": 3607,
      "랬": 3608,
      "러": 3609,
      "런": 3610,
      "럼": 3611,
      "렇": 3612,
      "레": 3613,
      "렉": 3614,
      "려": 3615,
      "력": 3616,
      "련": 3617,
      "렸": 3618,
      "령": 3619,
      "로": 3620,
      "록": 3621,
      "론": 3622,
      "롤": 3623,
      "롭": 3624,
      "롯": 3625,
      "료": 3626,
      "루": 3627,
      "룰": 3628,
      "르": 3629,
      "른": 3630,
      "를": 3631,
      "름": 3632,
      "리": 3633,
      "린": 3634,
      "릴": 3635,
      "림": 3636,
      "립": 3637,
      "마": 3638,
      "막": 3639,
      "만": 3640,
      "많": 3641,
      "말": 3642,
      "맘": 3643,
      "맙": 3644,
      "망": 3645,
      "맞": 3646,
      "맡": 3647,
      "매": 3648,
      "맺": 3649,
      "머": 3650,
      "먹": 3651,
      "먼": 3652,
      "멀": 3653,
      "멋": 3654,
      "멍": 3655,
      "메": 3656,
      "며": 3657,
      "면": 3658,
      "멸": 3659,
      "명": 3660,
      "몇": 3661,
      "모": 3662,
      "목": 3663,
      "몰": 3664,
      "못": 3665,
      "몽": 3666,
      "무": 3667,
      "문": 3668,
      "묻": 3669,
      "물": 3670,
      "뭐": 3671,
      "뭘": 3672,
      "뮤": 3673,
      "미": 3674,
      "민": 3675,
      "믿": 3676,
      "밀": 3677,
      "바": 3678,
      "박": 3679,
      "밖": 3680,
      "반": 3681,
      "받": 3682,
      "발": 3683,
      "밝": 3684,
      "밥": 3685,
      "방": 3686,
      "배": 3687,
      "버": 3688,
      "벅": 3689,
      "번": 3690,
      "벌": 3691,
      "범": 3692,
      "법": 3693,
      "벗": 3694,
      "벤": 3695,
      "벽": 3696,
      "변": 3697,
      "별": 3698,
      "병": 3699,
      "보": 3700,
      "복": 3701,
      "본": 3702,
      "봐": 3703,
      "봤": 3704,
      "뵙": 3705,
      "부": 3706,
      "북": 3707,
      "분": 3708,
      "불": 3709,
      "붉": 3710,
      "붙": 3711,
      "뷰": 3712,
      "비": 3713,
      "빌": 3714,
      "빚": 3715,
      "빛": 3716,
      "빠": 3717,
      "빨": 3718,
      "뻥": 3719,
      "뽑": 3720,
      "쁘": 3721,
      "쁜": 3722,
      "사": 3723,
      "삭": 3724,
      "산": 3725,
      "살": 3726,
      "삶": 3727,
      "삼": 3728,
      "상": 3729,
      "새": 3730,
      "생": 3731,
      "서": 3732,
      "석": 3733,
      "선": 3734,
      "설": 3735,
      "섬": 3736,
      "섭": 3737,
      "섰": 3738,
      "성": 3739,
      "세": 3740,
      "셈": 3741,
      "션": 3742,
      "셨": 3743,
      "소": 3744,
      "속": 3745,
      "손": 3746,
      "솔": 3747,
      "송": 3748,
      "쇠": 3749,
      "수": 3750,
      "숙": 3751,
      "순": 3752,
      "숨": 3753,
      "쉬": 3754,
      "쉽": 3755,
      "슈": 3756,
      "스": 3757,
      "슨": 3758,
      "슬": 3759,
      "습": 3760,
      "슷": 3761,
      "승": 3762,
      "시": 3763,
      "식": 3764,
      "신": 3765,
      "실": 3766,
      "싫": 3767,
      "심": 3768,
      "십": 3769,
      "싶": 3770,
      "싸": 3771,
      "싼": 3772,
      "쌍": 3773,
      "써": 3774,
      "썼": 3775,
      "쓰": 3776,
      "쓴": 3777,
      "씨": 3778,
      "씩": 3779,
      "씬": 3780,
      "아": 3781,
      "악": 3782,
      "안": 3783,
      "않": 3784,
      "알": 3785,
      "았": 3786,
      "앞": 3787,
      "애": 3788,
      "액": 3789,
      "앨": 3790,
      "야": 3791,
      "약": 3792,
      "양": 3793,
      "얘": 3794,
      "어": 3795,
      "억": 3796,
      "언": 3797,
      "얻": 3798,
      "얼": 3799,
      "엄": 3800,
      "업": 3801,
      "없": 3802,
      "엇": 3803,
      "었": 3804,
      "엉": 3805,
      "에": 3806,
      "엔": 3807,
      "여": 3808,
      "역": 3809,
      "연": 3810,
      "열": 3811,
      "염": 3812,
      "였": 3813,
      "영": 3814,
      "예": 3815,
      "오": 3816,
      "온": 3817,
      "올": 3818,
      "옮": 3819,
      "옷": 3820,
      "와": 3821,
      "왔": 3822,
      "왜": 3823,
      "외": 3824,
      "요": 3825,
      "욕": 3826,
      "용": 3827,
      "우": 3828,
      "욱": 3829,
      "운": 3830,
      "울": 3831,
      "움": 3832,
      "웃": 3833,
      "워": 3834,
      "원": 3835,
      "월": 3836,
      "웠": 3837,
      "웬": 3838,
      "위": 3839,
      "유": 3840,
      "육": 3841,
      "윤": 3842,
      "으": 3843,
      "은": 3844,
      "을": 3845,
      "음": 3846,
      "읍": 3847,
      "응": 3848,
      "의": 3849,
      "이": 3850,
      "익": 3851,
      "인": 3852,
      "일": 3853,
      "임": 3854,
      "입": 3855,
      "잇": 3856,
      "있": 3857,
      "잊": 3858,
      "자": 3859,
      "작": 3860,
      "잔": 3861,
      "잘": 3862,
      "잠": 3863,
      "잡": 3864,
      "장": 3865,
      "재": 3866,
      "저": 3867,
      "적": 3868,
      "전": 3869,
      "절": 3870,
      "젊": 3871,
      "점": 3872,
      "접": 3873,
      "정": 3874,
      "젖": 3875,
      "제": 3876,
      "젝": 3877,
      "져": 3878,
      "졌": 3879,
      "조": 3880,
      "족": 3881,
      "존": 3882,
      "좀": 3883,
      "종": 3884,
      "좋": 3885,
      "죄": 3886,
      "주": 3887,
      "죽": 3888,
      "준": 3889,
      "줄": 3890,
      "줌": 3891,
      "중": 3892,
      "줘": 3893,
      "줬": 3894,
      "쥐": 3895,
      "즈": 3896,
      "즌": 3897,
      "증": 3898,
      "지": 3899,
      "직": 3900,
      "진": 3901,
      "질": 3902,
      "집": 3903,
      "짓": 3904,
      "짜": 3905,
      "째": 3906,
      "쨌": 3907,
      "쪽": 3908,
      "쫓": 3909,
      "쯧": 3910,
      "찌": 3911,
      "차": 3912,
      "착": 3913,
      "찬": 3914,
      "찰": 3915,
      "참": 3916,
      "창": 3917,
      "찾": 3918,
      "책": 3919,
      "챙": 3920,
      "처": 3921,
      "천": 3922,
      "철": 3923,
      "첩": 3924,
      "청": 3925,
      "체": 3926,
      "쳐": 3927,
      "초": 3928,
      "총": 3929,
      "최": 3930,
      "추": 3931,
      "축": 3932,
      "춘": 3933,
      "출": 3934,
      "충": 3935,
      "춰": 3936,
      "취": 3937,
      "츠": 3938,
      "측": 3939,
      "층": 3940,
      "치": 3941,
      "친": 3942,
      "칠": 3943,
      "카": 3944,
      "캐": 3945,
      "커": 3946,
      "컨": 3947,
      "컬": 3948,
      "컴": 3949,
      "케": 3950,
      "켜": 3951,
      "켰": 3952,
      "코": 3953,
      "콘": 3954,
      "콜": 3955,
      "크": 3956,
      "큰": 3957,
      "클": 3958,
      "큼": 3959,
      "키": 3960,
      "킨": 3961,
      "킹": 3962,
      "타": 3963,
      "탕": 3964,
      "태": 3965,
      "택": 3966,
      "터": 3967,
      "테": 3968,
      "텐": 3969,
      "텔": 3970,
      "토": 3971,
      "통": 3972,
      "퇴": 3973,
      "투": 3974,
      "튀": 3975,
      "트": 3976,
      "특": 3977,
      "틀": 3978,
      "티": 3979,
      "팀": 3980,
      "파": 3981,
      "판": 3982,
      "패": 3983,
      "팩": 3984,
      "팬": 3985,
      "퍼": 3986,
      "페": 3987,
      "편": 3988,
      "평": 3989,
      "폐": 3990,
      "포": 3991,
      "폭": 3992,
      "표": 3993,
      "풀": 3994,
      "품": 3995,
      "프": 3996,
      "픈": 3997,
      "픔": 3998,
      "피": 3999,
      "픽": 4000,
      "필": 4001,
      "하": 4002,
      "학": 4003,
      "한": 4004,
      "할": 4005,
      "함": 4006,
      "합": 4007,
      "항": 4008,
      "해": 4009,
      "햄": 4010,
      "했": 4011,
      "행": 4012,
      "향": 4013,
      "허": 4014,
      "험": 4015,
      "헝": 4016,
      "헤": 4017,
      "혀": 4018,
      "현": 4019,
      "혐": 4020,
      "협": 4021,
      "혔": 4022,
      "형": 4023,
      "혜": 4024,
      "호": 4025,
      "혹": 4026,
      "혼": 4027,
      "홀": 4028,
      "홍": 4029,
      "화": 4030,
      "확": 4031,
      "환": 4032,
      "활": 4033,
      "황": 4034,
      "회": 4035,
      "획": 4036,
      "효": 4037,
      "후": 4038,
      "훈": 4039,
      "훨": 4040,
      "훼": 4041,
      "휘": 4042,
      "휴": 4043,
      "흔": 4044,
      "흘": 4045,
      "흥": 4046,
      "희": 4047,
      "히": 4048,
      "힌": 4049,
      "힘": 4050,
      "": 4051,
      "": 4052,
      "": 4053,
      "": 4054,
      "": 4055,
      "": 4056,
      "": 4057,
      "": 4058,
      "": 4059,
      "": 4060,
      "": 4061,
      "": 4062,
      "": 4063,
      "": 4064,
      "": 4065,
      "": 4066,
      "": 4067,
      "": 4068,
      "": 4069,
      "": 4070,
      "": 4071,
      "": 4072,
      "": 4073,
      "": 4074,
      "": 4075,
      "": 4076,
      "": 4077,
      "": 4078,
      "": 4079,
      "": 4080,
      "": 4081,
      "": 4082,
      "": 4083,
      "": 4084,
      "": 4085,
      "": 4086,
      "": 4087,
      "": 4088,
      "": 4089,
      "": 4090,
      "": 4091,
      "": 4092,
      "": 4093,
      "": 4094,
      "": 4095,
      "": 4096,
      "": 4097,
      "": 4098,
      "": 4099,
      "": 4100,
      "": 4101,
      "": 4102,
      "": 4103,
      "": 4104,
      "": 4105,
      "": 4106,
      "ﬀ": 4107,
      "ﬁ": 4108,
      "ﬂ": 4109,
      "ﭑ": 4110,
      "ﭒ": 4111,
      "ﭓ": 4112,
      "ﭔ": 4113,
      "ﭕ": 4114,
      "ﭖ": 4115,
      "ﭗ": 4116,
      "ﭘ": 4117,
      "ﭙ": 4118,
      "ﭚ": 4119,
      "ﭛ": 4120,
      "ﭜ": 4121,
      "ﭝ": 4122,
      "ﭮ": 4123,
      "ﭯ": 4124,
      "ﭰ": 4125,
      "ﭱ": 4126,
      "ﭲ": 4127,
      "ﭳ": 4128,
      "ﭴ": 4129,
      "ﭵ": 4130,
      "ﭶ": 4131,
      "ﭷ": 4132,
      "ﭸ": 4133,
      "ﭹ": 4134,
      "ﭺ": 4135,
      "ﭻ": 4136,
      "ﭼ": 4137,
      "ﭽ": 4138,
      "ﮍ": 4139,
      "ﮎ": 4140,
      "ﮏ": 4141,
      "ﮐ": 4142,
      "ﮑ": 4143,
      "ﮒ": 4144,
      "ﮓ": 4145,
      "ﮔ": 4146,
      "ﮕ": 4147,
      "ﮖ": 4148,
      "ﮗ": 4149,
      "ﮘ": 4150,
      "ﮢ": 4151,
      "ﮣ": 4152,
      "ﮤ": 4153,
      "ﮥ": 4154,
      "ﮦ": 4155,
      "ﮧ": 4156,
      "ﮨ": 4157,
      "ﮩ": 4158,
      "ﮪ": 4159,
      "ﮫ": 4160,
      "ﮬ": 4161,
      "ﮭ": 4162,
      "ﮮ": 4163,
      "ﮯ": 4164,
      "ﮰ": 4165,
      "ﮱ": 4166,
      "ﯓ": 4167,
      "ﯔ": 4168,
      "ﯕ": 4169,
      "ﯖ": 4170,
      "ﯗ": 4171,
      "ﯘ": 4172,
      "ﯙ": 4173,
      "ﯚ": 4174,
      "ﯛ": 4175,
      "ﯜ": 4176,
      "ﯝ": 4177,
      "ﯞ": 4178,
      "ﯟ": 4179,
      "ﯠ": 4180,
      "ﯡ": 4181,
      "ﯢ": 4182,
      "ﯣ": 4183,
      "ﯤ": 4184,
      "ﯥ": 4185,
      "ﯦ": 4186,
      "ﯱ": 4187,
      "ﯲ": 4188,
      "ﯳ": 4189,
      "ﯴ": 4190,
      "ﯵ": 4191,
      "ﯶ": 4192,
      "ﯷ": 4193,
      "ﯸ": 4194,
      "ﯹ": 4195,
      "ﯺ": 4196,
      "ﯻ": 4197,
      "ﯼ": 4198,
      "ﯽ": 4199,
      "ﯾ": 4200,
      "ﯿ": 4201,
      "ﰀ": 4202,
      "ﰁ": 4203,
      "ﰂ": 4204,
      "ﰃ": 4205,
      "ﰄ": 4206,
      "ﰅ": 4207,
      "ﰆ": 4208,
      "ﰇ": 4209,
      "ﰈ": 4210,
      "ﰉ": 4211,
      "ﰊ": 4212,
      "ﰋ": 4213,
      "ﰌ": 4214,
      "ﰍ": 4215,
      "ﰎ": 4216,
      "ﰏ": 4217,
      "ﰐ": 4218,
      "ﰑ": 4219,
      "ﰒ": 4220,
      "ﷺ": 4221,
      "︎": 4222,
      "️": 4223,
      "﻿": 4224,
      "！": 4225,
      "％": 4226,
      "＆": 4227,
      "（": 4228,
      "）": 4229,
      "＊": 4230,
      "，": 4231,
      "－": 4232,
      "．": 4233,
      "／": 4234,
      "０": 4235,
      "１": 4236,
      "２": 4237,
      "３": 4238,
      "４": 4239,
      "５": 4240,
      "６": 4241,
      "７": 4242,
      "８": 4243,
      "９": 4244,
      "：": 4245,
      "；": 4246,
      "＜": 4247,
      "＝": 4248,
      "＞": 4249,
      "？": 4250,
      "Ａ": 4251,
      "Ｂ": 4252,
      "Ｃ": 4253,
      "Ｄ": 4254,
      "Ｅ": 4255,
      "Ｆ": 4256,
      "Ｇ": 4257,
      "Ｈ": 4258,
      "Ｉ": 4259,
      "Ｊ": 4260,
      "Ｋ": 4261,
      "Ｌ": 4262,
      "Ｍ": 4263,
      "Ｎ": 4264,
      "Ｏ": 4265,
      "Ｐ": 4266,
      "Ｑ": 4267,
      "Ｒ": 4268,
      "Ｓ": 4269,
      "Ｔ": 4270,
      "Ｕ": 4271,
      "Ｖ": 4272,
      "Ｗ": 4273,
      "Ｚ": 4274,
      "｀": 4275,
      "ａ": 4276,
      "ｂ": 4277,
      "ｄ": 4278,
      "ｅ": 4279,
      "ｇ": 4280,
      "ｈ": 4281,
      "ｉ": 4282,
      "ｋ": 4283,
      "ｌ": 4284,
      "ｍ": 4285,
      "ｎ": 4286,
      "ｏ": 4287,
      "ｐ": 4288,
      "ｒ": 4289,
      "ｓ": 4290,
      "ｕ": 4291,
      "ｗ": 4292,
      "ｚ": 4293,
      "～": 4294,
      "｡": 4295,
      "｢": 4296,
      "｣": 4297,
      "･": 4298,
      "ｨ": 4299,
      "ｱ": 4300,
      "ｲ": 4301,
      "ｽ": 4302,
      "ﾀ": 4303,
      "ﾉ": 4304,
      "ﾔ": 4305,
      "ﾞ": 4306,
      "ﾟ": 4307,
      "￢": 4308,
      "￥": 4309,
      "￼": 4310,
      "�": 4311,
      "𐑓": 4312,
      "𐑕": 4313,
      "𐑖": 4314,
      "𐑝": 4315,
      "𐑟": 4316,
      "𐑨": 4317,
      "𐑯": 4318,
      "𐑰": 4319,
      "𐑱": 4320,
      "𐑹": 4321,
      "𐑾": 4322,
      "𝒴": 4323,
      "𝔹": 4324,
      "𝕄": 4325,
      "𝕕": 4326,
      "𝕙": 4327,
      "𝕡": 4328,
      "𝕣": 4329,
      "𝕦": 4330,
      "𝕪": 4331,
      "𝟎": 4332,
      "𝟏": 4333,
      "𝟮": 4334,
      "𝟯": 4335,
      "𝟰": 4336,
      "𝟱": 4337,
      "𝟲": 4338,
      "𝟳": 4339,
      "𝟴": 4340,
      "𝟵": 4341,
      "🇦": 4342,
      "🇨": 4343,
      "🇪": 4344,
      "🇫": 4345,
      "🇮": 4346,
      "🇰": 4347,
      "🇴": 4348,
      "🇵": 4349,
      "🇷": 4350,
      "🇸": 4351,
      "🇹": 4352,
      "🇺": 4353,
      "🌈": 4354,
      "🌊": 4355,
      "🌎": 4356,
      "🌐": 4357,
      "🌞": 4358,
      "🌧": 4359,
      "🌹": 4360,
      "🍁": 4361,
      "🍉": 4362,
      "🍟": 4363,
      "🍳": 4364,
      "🍴": 4365,
      "🎁": 4366,
      "🎃": 4367,
      "🎅": 4368,
      "🎈": 4369,
      "🎉": 4370,
      "🎤": 4371,
      "🎥": 4372,
      "🎷": 4373,
      "🎺": 4374,
      "🏀": 4375,
      "🏁": 4376,
      "🏃": 4377,
      "🏆": 4378,
      "🏈": 4379,
      "🏌": 4380,
      "🏍": 4381,
      "🏏": 4382,
      "🏫": 4383,
      "🏳": 4384,
      "🏻": 4385,
      "🏼": 4386,
      "🏽": 4387,
      "🏾": 4388,
      "🐒": 4389,
      "🐕": 4390,
      "🐘": 4391,
      "🐙": 4392,
      "🐧": 4393,
      "🐱": 4394,
      "🐳": 4395,
      "🐴": 4396,
      "🐶": 4397,
      "🐸": 4398,
      "🐺": 4399,
      "👀": 4400,
      "👇": 4401,
      "👈": 4402,
      "👉": 4403,
      "👊": 4404,
      "👌": 4405,
      "👍": 4406,
      "👏": 4407,
      "👑": 4408,
      "👓": 4409,
      "👟": 4410,
      "👨": 4411,
      "👩": 4412,
      "👫": 4413,
      "👮": 4414,
      "👯": 4415,
      "👲": 4416,
      "👳": 4417,
      "👽": 4418,
      "👾": 4419,
      "💀": 4420,
      "💁": 4421,
      "💃": 4422,
      "💆": 4423,
      "💉": 4424,
      "💌": 4425,
      "💔": 4426,
      "💖": 4427,
      "💙": 4428,
      "💚": 4429,
      "💛": 4430,
      "💜": 4431,
      "💥": 4432,
      "💩": 4433,
      "💪": 4434,
      "💯": 4435,
      "💰": 4436,
      "💵": 4437,
      "💻": 4438,
      "📊": 4439,
      "📍": 4440,
      "📏": 4441,
      "📖": 4442,
      "📝": 4443,
      "🔃": 4444,
      "🔊": 4445,
      "🔎": 4446,
      "🔥": 4447,
      "🔫": 4448,
      "🔬": 4449,
      "🔮": 4450,
      "🔹": 4451,
      "🕊": 4452,
      "🕴": 4453,
      "🕺": 4454,
      "🖖": 4455,
      "🖤": 4456,
      "🗽": 4457,
      "😀": 4458,
      "😁": 4459,
      "😂": 4460,
      "😄": 4461,
      "😅": 4462,
      "😇": 4463,
      "😈": 4464,
      "😉": 4465,
      "😊": 4466,
      "😍": 4467,
      "😎": 4468,
      "😐": 4469,
      "😖": 4470,
      "😘": 4471,
      "😛": 4472,
      "😜": 4473,
      "😡": 4474,
      "😢": 4475,
      "😣": 4476,
      "😥": 4477,
      "😦": 4478,
      "😪": 4479,
      "😬": 4480,
      "😭": 4481,
      "😮": 4482,
      "😯": 4483,
      "😱": 4484,
      "😲": 4485,
      "😳": 4486,
      "😵": 4487,
      "😸": 4488,
      "😹": 4489,
      "😺": 4490,
      "😻": 4491,
      "😼": 4492,
      "😽": 4493,
      "😾": 4494,
      "😿": 4495,
      "🙀": 4496,
      "🙁": 4497,
      "🙂": 4498,
      "🙄": 4499,
      "🙈": 4500,
      "🙉": 4501,
      "🙊": 4502,
      "🙋": 4503,
      "🙌": 4504,
      "🙏": 4505,
      "🚀": 4506,
      "🚃": 4507,
      "🚗": 4508,
      "🚨": 4509,
      "🚴": 4510,
      "🛀": 4511,
      "🛁": 4512,
      "🤓": 4513,
      "🤔": 4514,
      "🤘": 4515,
      "🤙": 4516,
      "🤷": 4517,
      "🥁": 4518,
      "🥖": 4519,
      "🥶": 4520,
      "🦁": 4521,
      "🦆": 4522,
      "󾌵": 4523,
      "th": 4524,
      "in": 4525,
      "er": 4526,
      "an": 4527,
      "the": 4528,
      "on": 4529,
      "re": 4530,
      "at": 4531,
      "en": 4532,
      "or": 4533,
      "st": 4534,
      "ed": 4535,
      "al": 4536,
      "ou": 4537,
      "ing": 4538,
      "to": 4539,
      "is": 4540,
      "ar": 4541,
      "it": 4542,
      "es": 4543,
      "of": 4544,
      "and": 4545,
      "as": 4546,
      "ic": 4547,
      "le": 4548,
      "ion": 4549,
      "om": 4550,
      "he": 4551,
      "ent": 4552,
      "se": 4553,
      "il": 4554,
      "ac": 4555,
      "be": 4556,
      "ve": 4557,
      "ly": 4558,
      "id": 4559,
      "ro": 4560,
      "ad": 4561,
      "for": 4562,
      "am": 4563,
      "that": 4564,
      "ch": 4565,
      "ow": 4566,
      "ay": 4567,
      "wh": 4568,
      "im": 4569,
      "ol": 4570,
      "ig": 4571,
      "ver": 4572,
      "ot": 4573,
      "ut": 4574,
      "un": 4575,
      "et": 4576,
      "ith": 4577,
      "ur": 4578,
      "ir": 4579,
      "ce": 4580,
      "de": 4581,
      "ation": 4582,
      "are": 4583,
      "ct": 4584,
      "ab": 4585,
      "ag": 4586,
      "ter": 4587,
      "con": 4588,
      "The": 4589,
      "with": 4590,
      "us": 4591,
      "li": 4592,
      "ers": 4593,
      "ere": 4594,
      "el": 4595,
      "op": 4596,
      "com": 4597,
      "mo": 4598,
      "ha": 4599,
      "ill": 4600,
      "su": 4601,
      "ne": 4602,
      "was": 4603,
      "you": 4604,
      "ld": 4605,
      "ke": 4606,
      "all": 4607,
      "pe": 4608,
      "out": 4609,
      "pl": 4610,
      "pro": 4611,
      "ri": 4612,
      "ate": 4613,
      "res": 4614,
      "ul": 4615,
      "we": 4616,
      "em": 4617,
      "ex": 4618,
      "ap": 4619,
      "fr": 4620,
      "lo": 4621,
      "igh": 4622,
      "ain": 4623,
      "oun": 4624,
      "ment": 4625,
      "tr": 4626,
      "sh": 4627,
      "one": 4628,
      "by": 4629,
      "if": 4630,
      "so": 4631,
      "his": 4632,
      "our": 4633,
      "ist": 4634,
      "not": 4635,
      "art": 4636,
      "ant": 4637,
      "ess": 4638,
      "have": 4639,
      "ity": 4640,
      "ould": 4641,
      "ther": 4642,
      "po": 4643,
      "te": 4644,
      "from": 4645,
      "um": 4646,
      "this": 4647,
      "sa": 4648,
      "qu": 4649,
      "ive": 4650,
      "act": 4651,
      "ight": 4652,
      "ust": 4653,
      "per": 4654,
      "go": 4655,
      "ort": 4656,
      "end": 4657,
      "wor": 4658,
      "ast": 4659,
      "ge": 4660,
      "od": 4661,
      "has": 4662,
      "fe": 4663,
      "20": 4664,
      "ack": 4665,
      "up": 4666,
      "do": 4667,
      "ies": 4668,
      "ally": 4669,
      "but": 4670,
      "ome": 4671,
      "ear": 4672,
      "gh": 4673,
      "In": 4674,
      "ard": 4675,
      "cl": 4676,
      "any": 4677,
      "co": 4678,
      "ak": 4679,
      "me": 4680,
      "can": 4681,
      "they": 4682,
      "au": 4683,
      "will": 4684,
      "pr": 4685,
      "said": 4686,
      "ci": 4687,
      "ind": 4688,
      "gr": 4689,
      "who": 4690,
      "ans": 4691,
      "ough": 4692,
      "port": 4693,
      "ich": 4694,
      "Th": 4695,
      "ev": 4696,
      "iv": 4697,
      "der": 4698,
      "ame": 4699,
      "ide": 4700,
      "ok": 4701,
      "their": 4702,
      "now": 4703,
      "ice": 4704,
      "more": 4705,
      "af": 4706,
      "tim": 4707,
      "ong": 4708,
      "est": 4709,
      "age": 4710,
      "ound": 4711,
      "00": 4712,
      "ous": 4713,
      "bl": 4714,
      "red": 4715,
      "ine": 4716,
      "ud": 4717,
      "ions": 4718,
      "no": 4719,
      "bo": 4720,
      "about": 4721,
      "had": 4722,
      "ber": 4723,
      "some": 4724,
      "off": 4725,
      "ated": 4726,
      "ell": 4727,
      "It": 4728,
      "year": 4729,
      "day": 4730,
      "its": 4731,
      "ck": 4732,
      "ie": 4733,
      "fo": 4734,
      "which": 4735,
      "were": 4736,
      "int": 4737,
      "would": 4738,
      "ep": 4739,
      "aw": 4740,
      "able": 4741,
      "cr": 4742,
      "ia": 4743,
      "comp": 4744,
      "thing": 4745,
      "ake": 4746,
      "ass": 4747,
      "ence": 4748,
      "like": 4749,
      "man": 4750,
      "ure": 4751,
      "ll": 4752,
      "very": 4753,
      "other": 4754,
      "her": 4755,
      "own": 4756,
      "iz": 4757,
      "been": 4758,
      "get": 4759,
      "av": 4760,
      "An": 4761,
      "ach": 4762,
      "work": 4763,
      "sp": 4764,
      "over": 4765,
      "ign": 4766,
      "ary": 4767,
      "cre": 4768,
      "new": 4769,
      "ace": 4770,
      "ip": 4771,
      "201": 4772,
      "ite": 4773,
      "cont": 4774,
      "part": 4775,
      "Wh": 4776,
      "str": 4777,
      "St": 4778,
      "pres": 4779,
      "form": 4780,
      "ish": 4781,
      "than": 4782,
      "ue": 4783,
      "ire": 4784,
      "my": 4785,
      "way": 4786,
      "there": 4787,
      "ail": 4788,
      "ople": 4789,
      "cent": 4790,
      "pos": 4791,
      "dis": 4792,
      "ts": 4793,
      "ile": 4794,
      "time": 4795,
      "ial": 4796,
      "what": 4797,
      "pre": 4798,
      "ser": 4799,
      "ical": 4800,
      "19": 4801,
      "also": 4802,
      "just": 4803,
      "them": 4804,
      "Ch": 4805,
      "when": 4806,
      "br": 4807,
      "people": 4808,
      "your": 4809,
      "ble": 4810,
      "cor": 4811,
      "play": 4812,
      "fir": 4813,
      "He": 4814,
      "att": 4815,
      "fer": 4816,
      "ick": 4817,
      "pol": 4818,
      "tw": 4819,
      "say": 4820,
      "ations": 4821,
      "ens": 4822,
      "inter": 4823,
      "ren": 4824,
      "low": 4825,
      "ance": 4826,
      "pt": 4827,
      "ction": 4828,
      "ef": 4829,
      "ase": 4830,
      "mon": 4831,
      "ree": 4832,
      "We": 4833,
      "into": 4834,
      "ang": 4835,
      "old": 4836,
      ".”": 4837,
      "ink": 4838,
      "mer": 4839,
      "ty": 4840,
      "ark": 4841,
      "vel": 4842,
      "ory": 4843,
      "most": 4844,
      "ident": 4845,
      "coun": 4846,
      "ian": 4847,
      "ition": 4848,
      "back": 4849,
      "ob": 4850,
      "how": 4851,
      "cau": 4852,
      "ph": 4853,
      "know": 4854,
      "du": 4855,
      "spe": 4856,
      "ates": 4857,
      "she": 4858,
      "ors": 4859,
      "ade": 4860,
      "after": 4861,
      "ubl": 4862,
      "ra": 4863,
      "og": 4864,
      "amp": 4865,
      "This": 4866,
      "ose": 4867,
      "first": 4868,
      "cause": 4869,
      "cess": 4870,
      "him": 4871,
      "could": 4872,
      "pp": 4873,
      "ful": 4874,
      ",”": 4875,
      "But": 4876,
      "vers": 4877,
      "cur": 4878,
      "min": 4879,
      "fore": 4880,
      "only": 4881,
      "sel": 4882,
      "ning": 4883,
      "two": 4884,
      "row": 4885,
      "enc": 4886,
      "ild": 4887,
      "ater": 4888,
      "ting": 4889,
      "Un": 4890,
      ".\"": 4891,
      "bet": 4892,
      "And": 4893,
      "ious": 4894,
      "ry": 4895,
      "read": 4896,
      "med": 4897,
      "sy": 4898,
      "comm": 4899,
      "des": 4900,
      "under": 4901,
      "ew": 4902,
      "did": 4903,
      "fin": 4904,
      "where": 4905,
      "don": 4906,
      "right": 4907,
      "see": 4908,
      "bu": 4909,
      "ict": 4910,
      "even": 4911,
      "add": 4912,
      "ents": 4913,
      "again": 4914,
      "gu": 4915,
      "use": 4916,
      "come": 4917,
      "want": 4918,
      "reg": 4919,
      "si": 4920,
      "because": 4921,
      "ating": 4922,
      "Tr": 4923,
      "ublic": 4924,
      "years": 4925,
      "fl": 4926,
      "call": 4927,
      "ason": 4928,
      "ual": 4929,
      "ult": 4930,
      "os": 4931,
      "As": 4932,
      "col": 4933,
      "need": 4934,
      "ving": 4935,
      ",\"": 4936,
      "ved": 4937,
      "rough": 4938,
      "many": 4939,
      "10": 4940,
      "ect": 4941,
      "reat": 4942,
      "dr": 4943,
      "ho": 4944,
      "ever": 4945,
      "air": 4946,
      "ress": 4947,
      "--": 4948,
      "down": 4949,
      "used": 4950,
      "every": 4951,
      "then": 4952,
      "make": 4953,
      "ener": 4954,
      "look": 4955,
      "try": 4956,
      "iss": 4957,
      "sc": 4958,
      "rel": 4959,
      "Re": 4960,
      "uch": 4961,
      "incl": 4962,
      "these": 4963,
      "cord": 4964,
      "ins": 4965,
      "urn": 4966,
      "dif": 4967,
      "cial": 4968,
      "leg": 4969,
      "being": 4970,
      "cer": 4971,
      "think": 4972,
      "ational": 4973,
      "though": 4974,
      "hel": 4975,
      "may": 4976,
      "itt": 4977,
      "lect": 4978,
      "vie": 4979,
      "ments": 4980,
      "ath": 4981,
      "land": 4982,
      "state": 4983,
      "well": 4984,
      "ek": 4985,
      "arch": 4986,
      "200": 4987,
      "oup": 4988,
      "cho": 4989,
      "ank": 4990,
      "ced": 4991,
      "ject": 4992,
      "ise": 4993,
      "long": 4994,
      "point": 4995,
      "De": 4996,
      "ased": 4997,
      "through": 4998,
      "less": 4999,
      "ative": 5000,
      "last": 5001,
      "self": 5002,
      "set": 5003,
      "ann": 5004,
      "ited": 5005,
      "high": 5006,
      "New": 5007,
      "should": 5008,
      "Amer": 5009,
      "Americ": 5010,
      "aking": 5011,
      "..": 5012,
      "ore": 5013,
      "pect": 5014,
      "much": 5015,
      ").": 5016,
      "those": 5017,
      "let": 5018,
      "ities": 5019,
      "gover": 5020,
      "cle": 5021,
      "ump": 5022,
      "rem": 5023,
      "You": 5024,
      "show": 5025,
      "ug": 5026,
      "tain": 5027,
      "ash": 5028,
      "ven": 5029,
      "uring": 5030,
      "car": 5031,
      "govern": 5032,
      "imp": 5033,
      "If": 5034,
      "ics": 5035,
      "For": 5036,
      "atch": 5037,
      "going": 5038,
      "oy": 5039,
      "does": 5040,
      "stand": 5041,
      "ask": 5042,
      "report": 5043,
      "fun": 5044,
      "tal": 5045,
      "start": 5046,
      "pers": 5047,
      "before": 5048,
      "ss": 5049,
      "ince": 5050,
      "So": 5051,
      "put": 5052,
      "wr": 5053,
      "fect": 5054,
      "vis": 5055,
      "ces": 5056,
      "als": 5057,
      "led": 5058,
      "ma": 5059,
      "made": 5060,
      "Al": 5061,
      "while": 5062,
      "lar": 5063,
      "sur": 5064,
      "such": 5065,
      "view": 5066,
      "cond": 5067,
      "ange": 5068,
      "team": 5069,
      "ms": 5070,
      "world": 5071,
      "ves": 5072,
      "dec": 5073,
      "lead": 5074,
      "oc": 5075,
      "cons": 5076,
      "pon": 5077,
      "ily": 5078,
      "stem": 5079,
      "),": 5080,
      "sup": 5081,
      "ific": 5082,
      "produ": 5083,
      "Con": 5084,
      "law": 5085,
      "sub": 5086,
      "turn": 5087,
      "good": 5088,
      "ings": 5089,
      "game": 5090,
      "ular": 5091,
      "stud": 5092,
      "tri": 5093,
      "che": 5094,
      "They": 5095,
      "fi": 5096,
      "ually": 5097,
      "week": 5098,
      "ys": 5099,
      "les": 5100,
      "ility": 5101,
      "ton": 5102,
      "char": 5103,
      "includ": 5104,
      "ward": 5105,
      "fact": 5106,
      "against": 5107,
      "gan": 5108,
      "di": 5109,
      "There": 5110,
      "ext": 5111,
      "run": 5112,
      "test": 5113,
      "Fr": 5114,
      "still": 5115,
      "Ar": 5116,
      "ower": 5117,
      "says": 5118,
      "take": 5119,
      "sm": 5120,
      "here": 5121,
      "real": 5122,
      "app": 5123,
      "ween": 5124,
      "line": 5125,
      "help": 5126,
      "head": 5127,
      "ner": 5128,
      "offic": 5129,
      "illion": 5130,
      "differ": 5131,
      "olog": 5132,
      "quest": 5133,
      "num": 5134,
      "government": 5135,
      "000": 5136,
      "cut": 5137,
      "cour": 5138,
      "Com": 5139,
      "That": 5140,
      "Se": 5141,
      "la": 5142,
      "ism": 5143,
      "between": 5144,
      ".[": 5145,
      "clo": 5146,
      "sign": 5147,
      "ub": 5148,
      "system": 5149,
      "war": 5150,
      "same": 5151,
      "serv": 5152,
      "cap": 5153,
      "hand": 5154,
      "ollow": 5155,
      "prov": 5156,
      "eng": 5157,
      "around": 5158,
      "trans": 5159,
      "No": 5160,
      "ds": 5161,
      "ists": 5162,
      "ames": 5163,
      "ax": 5164,
      "book": 5165,
      "Is": 5166,
      "io": 5167,
      "side": 5168,
      "son": 5169,
      "person": 5170,
      "three": 5171,
      "public": 5172,
      "mem": 5173,
      "fam": 5174,
      "Br": 5175,
      "velop": 5176,
      "inst": 5177,
      "Le": 5178,
      "group": 5179,
      "ouse": 5180,
      "ten": 5181,
      "found": 5182,
      "ters": 5183,
      "On": 5184,
      "vest": 5185,
      "support": 5186,
      "got": 5187,
      "ff": 5188,
      "Be": 5189,
      "really": 5190,
      "wom": 5191,
      "vi": 5192,
      "ures": 5193,
      "press": 5194,
      "ave": 5195,
      "15": 5196,
      "pri": 5197,
      "peri": 5198,
      "mark": 5199,
      "issu": 5200,
      "val": 5201,
      "happ": 5202,
      "12": 5203,
      "sul": 5204,
      "Trump": 5205,
      "lot": 5206,
      "sure": 5207,
      "month": 5208,
      "ways": 5209,
      "power": 5210,
      "US": 5211,
      "gest": 5212,
      "uss": 5213,
      "Jo": 5214,
      "both": 5215,
      "det": 5216,
      "vol": 5217,
      "fil": 5218,
      "find": 5219,
      "life": 5220,
      "def": 5221,
      "irect": 5222,
      "big": 5223,
      "cal": 5224,
      "top": 5225,
      "ages": 5226,
      "aren": 5227,
      "18": 5228,
      "par": 5229,
      "ost": 5230,
      "polit": 5231,
      "gener": 5232,
      "ense": 5233,
      "develop": 5234,
      "ices": 5235,
      "told": 5236,
      "cept": 5237,
      "ship": 5238,
      "during": 5239,
      "miss": 5240,
      "respon": 5241,
      "ied": 5242,
      "ale": 5243,
      "too": 5244,
      "!!": 5245,
      "alth": 5246,
      "ng": 5247,
      "beli": 5248,
      "Cl": 5249,
      "stru": 5250,
      "xt": 5251,
      "ft": 5252,
      "came": 5253,
      "ama": 5254,
      "follow": 5255,
      "ared": 5256,
      "ically": 5257,
      "How": 5258,
      "ines": 5259,
      "pass": 5260,
      "contin": 5261,
      "appe": 5262,
      "since": 5263,
      "list": 5264,
      "net": 5265,
      "11": 5266,
      "few": 5267,
      "rest": 5268,
      "place": 5269,
      "ider": 5270,
      "cording": 5271,
      "ars": 5272,
      "expl": 5273,
      "season": 5274,
      "light": 5275,
      "national": 5276,
      "aim": 5277,
      "bers": 5278,
      "vot": 5279,
      "bre": 5280,
      "bus": 5281,
      "ris": 5282,
      "akes": 5283,
      "unt": 5284,
      "using": 5285,
      "At": 5286,
      "chool": 5287,
      "giv": 5288,
      "allow": 5289,
      "commun": 5290,
      "30": 5291,
      "sol": 5292,
      "something": 5293,
      "far": 5294,
      "blo": 5295,
      "gy": 5296,
      "kill": 5297,
      "rele": 5298,
      "care": 5299,
      "invest": 5300,
      "ues": 5301,
      "ime": 5302,
      "ah": 5303,
      "ody": 5304,
      "open": 5305,
      "another": 5306,
      "vent": 5307,
      "Ad": 5308,
      "ized": 5309,
      "clear": 5310,
      "order": 5311,
      "bit": 5312,
      "cover": 5313,
      "different": 5314,
      "called": 5315,
      "ready": 5316,
      "rent": 5317,
      "ution": 5318,
      "ata": 5319,
      "things": 5320,
      "When": 5321,
      "child": 5322,
      "each": 5323,
      "camp": 5324,
      "Sh": 5325,
      "ants": 5326,
      "post": 5327,
      "ement": 5328,
      "What": 5329,
      "might": 5330,
      "home": 5331,
      "ivers": 5332,
      "ush": 5333,
      "never": 5334,
      "possi": 5335,
      "second": 5336,
      "contro": 5337,
      "ted": 5338,
      "requ": 5339,
      "por": 5340,
      "search": 5341,
      "Pro": 5342,
      "iness": 5343,
      "gram": 5344,
      "best": 5345,
      "ize": 5346,
      "next": 5347,
      "atter": 5348,
      "dist": 5349,
      "percent": 5350,
      "ness": 5351,
      "sing": 5352,
      "including": 5353,
      "ross": 5354,
      "hum": 5355,
      "direct": 5356,
      "build": 5357,
      "pay": 5358,
      "seem": 5359,
      "feel": 5360,
      "change": 5361,
      "pop": 5362,
      "move": 5363,
      "ger": 5364,
      "incre": 5365,
      "ittle": 5366,
      "number": 5367,
      "plan": 5368,
      "az": 5369,
      "level": 5370,
      "lim": 5371,
      "oper": 5372,
      "case": 5373,
      "resul": 5374,
      "ps": 5375,
      "million": 5376,
      "oth": 5377,
      "ital": 5378,
      "She": 5379,
      "import": 5380,
      "interest": 5381,
      "inform": 5382,
      "present": 5383,
      "resident": 5384,
      "ood": 5385,
      "soci": 5386,
      "great": 5387,
      "won": 5388,
      "hard": 5389,
      "mar": 5390,
      "dri": 5391,
      "without": 5392,
      "proble": 5393,
      "conom": 5394,
      "50": 5395,
      "ball": 5396,
      "cy": 5397,
      "bro": 5398,
      "country": 5399,
      "men": 5400,
      "king": 5401,
      "ele": 5402,
      "oney": 5403,
      "tech": 5404,
      "four": 5405,
      "ately": 5406,
      "Rep": 5407,
      "riend": 5408,
      "American": 5409,
      "sit": 5410,
      "sum": 5411,
      "partic": 5412,
      "ably": 5413,
      "16": 5414,
      "prom": 5415,
      "ished": 5416,
      "mil": 5417,
      "Ob": 5418,
      "main": 5419,
      "ling": 5420,
      "better": 5421,
      "14": 5422,
      "ral": 5423,
      "tra": 5424,
      "ature": 5425,
      "Af": 5426,
      "recent": 5427,
      "Mar": 5428,
      "cri": 5429,
      "win": 5430,
      "eld": 5431,
      "ern": 5432,
      "little": 5433,
      "ety": 5434,
      "To": 5435,
      "ets": 5436,
      "prof": 5437,
      "keep": 5438,
      "uro": 5439,
      "left": 5440,
      "jor": 5441,
      "appro": 5442,
      "ord": 5443,
      "class": 5444,
      "attack": 5445,
      "Pr": 5446,
      "fic": 5447,
      "ier": 5448,
      "gre": 5449,
      "iting": 5450,
      "ons": 5451,
      "uck": 5452,
      "ese": 5453,
      "ina": 5454,
      "ency": 5455,
      "school": 5456,
      "13": 5457,
      "organ": 5458,
      "nor": 5459,
      "police": 5460,
      "chang": 5461,
      "effect": 5462,
      "inal": 5463,
      "didn": 5464,
      "claim": 5465,
      "grow": 5466,
      "friend": 5467,
      "den": 5468,
      "ib": 5469,
      "dep": 5470,
      "ont": 5471,
      "hist": 5472,
      "ather": 5473,
      "del": 5474,
      "ned": 5475,
      "president": 5476,
      "Can": 5477,
      "based": 5478,
      "econom": 5479,
      "spec": 5480,
      "near": 5481,
      "free": 5482,
      "Nor": 5483,
      "met": 5484,
      "ret": 5485,
      "wit": 5486,
      "reason": 5487,
      "data": 5488,
      "ork": 5489,
      "vious": 5490,
      "company": 5491,
      "ired": 5492,
      "program": 5493,
      "thor": 5494,
      "17": 5495,
      "atic": 5496,
      "pur": 5497,
      "body": 5498,
      "process": 5499,
      "rist": 5500,
      "ability": 5501,
      "minist": 5502,
      "comple": 5503,
      "eas": 5504,
      "ator": 5505,
      "expect": 5506,
      "ional": 5507,
      "key": 5508,
      "away": 5509,
      "cu": 5510,
      "current": 5511,
      "night": 5512,
      "var": 5513,
      "Ro": 5514,
      "ration": 5515,
      "hold": 5516,
      "later": 5517,
      "hn": 5518,
      "One": 5519,
      "ended": 5520,
      "official": 5521,
      "ided": 5522,
      "design": 5523,
      "tell": 5524,
      "small": 5525,
      "ca": 5526,
      "ending": 5527,
      "coming": 5528,
      "tem": 5529,
      "United": 5530,
      "Gr": 5531,
      "aph": 5532,
      "imes": 5533,
      "city": 5534,
      "ploy": 5535,
      "women": 5536,
      "experi": 5537,
      "Co": 5538,
      "rece": 5539,
      "action": 5540,
      "bal": 5541,
      "money": 5542,
      "All": 5543,
      "ref": 5544,
      "199": 5545,
      "story": 5546,
      "major": 5547,
      "already": 5548,
      "why": 5549,
      "Or": 5550,
      "ude": 5551,
      "enter": 5552,
      "techn": 5553,
      "business": 5554,
      "sever": 5555,
      "adv": 5556,
      "edit": 5557,
      "days": 5558,
      "ric": 5559,
      "ats": 5560,
      "project": 5561,
      "ives": 5562,
      "consider": 5563,
      "ones": 5564,
      "making": 5565,
      "face": 5566,
      "health": 5567,
      "vir": 5568,
      "ised": 5569,
      "bed": 5570,
      "whe": 5571,
      "mocr": 5572,
      "ks": 5573,
      "fort": 5574,
      "simp": 5575,
      "aign": 5576,
      "always": 5577,
      "elect": 5578,
      "qual": 5579,
      "ards": 5580,
      "tax": 5581,
      "hop": 5582,
      "Mr": 5583,
      "Bl": 5584,
      "ago": 5585,
      "cost": 5586,
      "comes": 5587,
      "large": 5588,
      "25": 5589,
      "ology": 5590,
      "ute": 5591,
      "known": 5592,
      "hal": 5593,
      "information": 5594,
      "must": 5595,
      "John": 5596,
      "bor": 5597,
      "May": 5598,
      "cas": 5599,
      "und": 5600,
      "past": 5601,
      "job": 5602,
      "happen": 5603,
      "important": 5604,
      "ged": 5605,
      "Col": 5606,
      "suc": 5607,
      "ik": 5608,
      "name": 5609,
      "ains": 5610,
      "ample": 5611,
      "sho": 5612,
      "ural": 5613,
      "unch": 5614,
      "late": 5615,
      "outh": 5616,
      "ey": 5617,
      "ury": 5618,
      "position": 5619,
      "fac": 5620,
      "Go": 5621,
      "working": 5622,
      "possible": 5623,
      "plic": 5624,
      "least": 5625,
      "kind": 5626,
      "IS": 5627,
      "polic": 5628,
      "gin": 5629,
      "doesn": 5630,
      "eder": 5631,
      "likely": 5632,
      "iversity": 5633,
      "exp": 5634,
      "campaign": 5635,
      "Car": 5636,
      "news": 5637,
      "Pl": 5638,
      "record": 5639,
      "Li": 5640,
      "acy": 5641,
      "Republic": 5642,
      "With": 5643,
      "family": 5644,
      "human": 5645,
      "que": 5646,
      "ision": 5647,
      "mean": 5648,
      "site": 5649,
      "inc": 5650,
      "until": 5651,
      "ides": 5652,
      "ained": 5653,
      "vide": 5654,
      "political": 5655,
      "enough": 5656,
      "ribut": 5657,
      "sk": 5658,
      "deal": 5659,
      "ix": 5660,
      "water": 5661,
      "certain": 5662,
      "nam": 5663,
      "ney": 5664,
      "curity": 5665,
      "lear": 5666,
      "ences": 5667,
      "Ind": 5668,
      "plac": 5669,
      "...": 5670,
      "Sy": 5671,
      "ley": 5672,
      "Ex": 5673,
      "former": 5674,
      "ster": 5675,
      "tract": 5676,
      "ians": 5677,
      "often": 5678,
      "ste": 5679,
      "took": 5680,
      "actually": 5681,
      "ground": 5682,
      "Euro": 5683,
      "ined": 5684,
      "jo": 5685,
      "become": 5686,
      "room": 5687,
      "posed": 5688,
      "research": 5689,
      "ple": 5690,
      "prote": 5691,
      "Don": 5692,
      "full": 5693,
      "stop": 5694,
      "ror": 5695,
      "Mc": 5696,
      "ls": 5697,
      "times": 5698,
      "give": 5699,
      "market": 5700,
      "bar": 5701,
      "Man": 5702,
      "aring": 5703,
      "ible": 5704,
      "Im": 5705,
      "sci": 5706,
      "President": 5707,
      "tar": 5708,
      "pot": 5709,
      "hour": 5710,
      "ird": 5711,
      "went": 5712,
      "Mo": 5713,
      "Obama": 5714,
      "RE": 5715,
      "After": 5716,
      "sim": 5717,
      "according": 5718,
      "Ac": 5719,
      "aining": 5720,
      "Pol": 5721,
      "non": 5722,
      "early": 5723,
      "stre": 5724,
      "doing": 5725,
      "ru": 5726,
      "seen": 5727,
      "Inter": 5728,
      "media": 5729,
      "games": 5730,
      "having": 5731,
      "nal": 5732,
      "sug": 5733,
      "social": 5734,
      "eve": 5735,
      "aid": 5736,
      "return": 5737,
      "ying": 5738,
      "uc": 5739,
      "ought": 5740,
      "ben": 5741,
      "crit": 5742,
      "five": 5743,
      "bas": 5744,
      "Ph": 5745,
      "York": 5746,
      "ali": 5747,
      "product": 5748,
      "ization": 5749,
      "gen": 5750,
      "idence": 5751,
      "event": 5752,
      "graph": 5753,
      "aken": 5754,
      "struct": 5755,
      "sex": 5756,
      "Ste": 5757,
      "Mon": 5758,
      "mor": 5759,
      "author": 5760,
      "course": 5761,
      "mid": 5762,
      "force": 5763,
      "question": 5764,
      "Sp": 5765,
      "children": 5766,
      "__": 5767,
      "today": 5768,
      "several": 5769,
      "24": 5770,
      "employ": 5771,
      "Not": 5772,
      "une": 5773,
      "fight": 5774,
      "whether": 5775,
      "charac": 5776,
      "tion": 5777,
      "ither": 5778,
      "count": 5779,
      "ensive": 5780,
      "mber": 5781,
      "ran": 5782,
      "members": 5783,
      "sent": 5784,
      "milit": 5785,
      "uture": 5786,
      "success": 5787,
      "icle": 5788,
      "once": 5789,
      "stit": 5790,
      "ories": 5791,
      "Europe": 5792,
      "players": 5793,
      "half": 5794,
      "local": 5795,
      "activ": 5796,
      "vil": 5797,
      "Bo": 5798,
      "aged": 5799,
      "asked": 5800,
      "wer": 5801,
      "along": 5802,
      "meet": 5803,
      "close": 5804,
      "Coun": 5805,
      "ots": 5806,
      "West": 5807,
      "viol": 5808,
      "priv": 5809,
      "short": 5810,
      "offer": 5811,
      "invol": 5812,
      "example": 5813,
      "uary": 5814,
      "ured": 5815,
      "100": 5816,
      "My": 5817,
      "ped": 5818,
      "understand": 5819,
      "AT": 5820,
      "ron": 5821,
      "months": 5822,
      "tt": 5823,
      "young": 5824,
      "ential": 5825,
      "mand": 5826,
      "However": 5827,
      "trad": 5828,
      "issue": 5829,
      "watch": 5830,
      "States": 5831,
      "cast": 5832,
      "State": 5833,
      "Wor": 5834,
      "given": 5835,
      "house": 5836,
      "dam": 5837,
      "sl": 5838,
      "among": 5839,
      "orig": 5840,
      "done": 5841,
      "within": 5842,
      "40": 5843,
      "University": 5844,
      "augh": 5845,
      "legal": 5846,
      "aff": 5847,
      "avail": 5848,
      "fail": 5849,
      "web": 5850,
      "concer": 5851,
      "problem": 5852,
      "bi": 5853,
      "thought": 5854,
      "Christ": 5855,
      "means": 5856,
      "ified": 5857,
      "gress": 5858,
      "mus": 5859,
      "2016": 5860,
      "ech": 5861,
      "investig": 5862,
      "pat": 5863,
      "Russ": 5864,
      "Democr": 5865,
      "ague": 5866,
      "gl": 5867,
      "While": 5868,
      "hy": 5869,
      "ulation": 5870,
      "depend": 5871,
      "House": 5872,
      "fig": 5873,
      "video": 5874,
      "ederal": 5875,
      "gun": 5876,
      "ilar": 5877,
      "future": 5878,
      "gether": 5879,
      "ison": 5880,
      "acc": 5881,
      "field": 5882,
      "Ger": 5883,
      "60": 5884,
      "community": 5885,
      "ivid": 5886,
      "En": 5887,
      "prob": 5888,
      "sour": 5889,
      "yet": 5890,
      "Min": 5891,
      "Canad": 5892,
      "announ": 5893,
      "strong": 5894,
      "step": 5895,
      "indust": 5896,
      "suggest": 5897,
      "mit": 5898,
      "believe": 5899,
      "dro": 5900,
      "reported": 5901,
      "across": 5902,
      "spo": 5903,
      "getting": 5904,
      "vert": 5905,
      "2015": 5906,
      "party": 5907,
      "makes": 5908,
      "death": 5909,
      "Dr": 5910,
      "ane": 5911,
      "Sen": 5912,
      "Some": 5913,
      "reach": 5914,
      "descri": 5915,
      "wal": 5916,
      "itive": 5917,
      "ER": 5918,
      "others": 5919,
      "control": 5920,
      "ded": 5921,
      "ient": 5922,
      "wn": 5923,
      "oto": 5924,
      "ially": 5925,
      "ators": 5926,
      "ister": 5927,
      "court": 5928,
      "ony": 5929,
      "love": 5930,
      "together": 5931,
      "fall": 5932,
      "Now": 5933,
      "foot": 5934,
      "ising": 5935,
      "disc": 5936,
      "Mic": 5937,
      "started": 5938,
      "ium": 5939,
      "enn": 5940,
      "ove": 5941,
      "urther": 5942,
      "available": 5943,
      "hind": 5944,
      "ington": 5945,
      "particular": 5946,
      "empt": 5947,
      "22": 5948,
      "ived": 5949,
      "iter": 5950,
      "front": 5951,
      "pret": 5952,
      "Har": 5953,
      "2014": 5954,
      "mind": 5955,
      "pract": 5956,
      "series": 5957,
      "looking": 5958,
      "IN": 5959,
      "ler": 5960,
      "cell": 5961,
      "rul": 5962,
      "ond": 5963,
      "complete": 5964,
      "bur": 5965,
      "War": 5966,
      "deb": 5967,
      "imm": 5968,
      "live": 5969,
      "almost": 5970,
      "gn": 5971,
      "compet": 5972,
      "har": 5973,
      "feat": 5974,
      "Just": 5975,
      "!!!!": 5976,
      "Do": 5977,
      "proper": 5978,
      "tom": 5979,
      "mal": 5980,
      "taken": 5981,
      "80": 5982,
      "selves": 5983,
      "kes": 5984,
      "America": 5985,
      "Ju": 5986,
      "area": 5987,
      "These": 5988,
      "dev": 5989,
      "round": 5990,
      "North": 5991,
      "trying": 5992,
      "hip": 5993,
      "foc": 5994,
      "mom": 5995,
      "Bar": 5996,
      "anal": 5997,
      "six": 5998,
      "cop": 5999,
      "experience": 6000,
      "following": 6001,
      "access": 6002,
      "compan": 6003,
      "publ": 6004,
      "security": 6005,
      "conne": 6006,
      "added": 6007,
      "space": 6008,
      "aft": 6009,
      "itions": 6010,
      "hit": 6011,
      "aster": 6012,
      "bad": 6013,
      "ances": 6014,
      "uses": 6015,
      "food": 6016,
      "isn": 6017,
      "supp": 6018,
      "mission": 6019,
      "Fe": 6020,
      "//": 6021,
      "film": 6022,
      "ustom": 6023,
      "AN": 6024,
      "Ge": 6025,
      "ination": 6026,
      ".,": 6027,
      "black": 6028,
      "wa": 6029,
      "Me": 6030,
      "idea": 6031,
      "Brit": 6032,
      "Ser": 6033,
      "history": 6034,
      "itional": 6035,
      "individ": 6036,
      "ails": 6037,
      "ference": 6038,
      "Res": 6039,
      "block": 6040,
      "His": 6041,
      "argu": 6042,
      "23": 6043,
      "21": 6044,
      "sof": 6045,
      "talk": 6046,
      "Sun": 6047,
      "By": 6048,
      "loc": 6049,
      "fully": 6050,
      "wanted": 6051,
      "mess": 6052,
      "----": 6053,
      "pick": 6054,
      "fire": 6055,
      "Dav": 6056,
      "Eng": 6057,
      "military": 6058,
      "sal": 6059,
      "sty": 6060,
      "saying": 6061,
      "flu": 6062,
      "anything": 6063,
      "ecut": 6064,
      "ald": 6065,
      "inton": 6066,
      "bill": 6067,
      "road": 6068,
      "Gu": 6069,
      "rather": 6070,
      "aver": 6071,
      "behind": 6072,
      "threat": 6073,
      "ene": 6074,
      "cially": 6075,
      "dom": 6076,
      "taking": 6077,
      "exist": 6078,
      "aper": 6079,
      "defin": 6080,
      "cult": 6081,
      "entire": 6082,
      "date": 6083,
      "bring": 6084,
      "individual": 6085,
      "cret": 6086,
      "World": 6087,
      "wide": 6088,
      "town": 6089,
      "Part": 6090,
      "break": 6091,
      "single": 6092,
      "agre": 6093,
      "City": 6094,
      "omet": 6095,
      "ott": 6096,
      "paren": 6097,
      "Dep": 6098,
      "ON": 6099,
      "photo": 6100,
      "fav": 6101,
      "works": 6102,
      "board": 6103,
      "band": 6104,
      "hom": 6105,
      "player": 6106,
      "stri": 6107,
      "ns": 6108,
      "nes": 6109,
      "——": 6110,
      "ior": 6111,
      "previous": 6112,
      "similar": 6113,
      "Aust": 6114,
      "National": 6115,
      "either": 6116,
      "study": 6117,
      "special": 6118,
      "policy": 6119,
      "tries": 6120,
      "quick": 6121,
      "ww": 6122,
      "pen": 6123,
      "roll": 6124,
      "BC": 6125,
      "mass": 6126,
      "discuss": 6127,
      "rad": 6128,
      "ids": 6129,
      "ams": 6130,
      "sus": 6131,
      "uge": 6132,
      "woman": 6133,
      "2013": 6134,
      "colle": 6135,
      "Ed": 6136,
      "Clinton": 6137,
      "vo": 6138,
      "ges": 6139,
      "27": 6140,
      "impro": 6141,
      "bank": 6142,
      "lier": 6143,
      "share": 6144,
      "Wash": 6145,
      "mult": 6146,
      "someone": 6147,
      "rights": 6148,
      "AS": 6149,
      "ched": 6150,
      "phone": 6151,
      "version": 6152,
      "sen": 6153,
      "scre": 6154,
      "ban": 6155,
      "Isra": 6156,
      "probably": 6157,
      "glo": 6158,
      "due": 6159,
      "box": 6160,
      "ding": 6161,
      "exper": 6162,
      "dest": 6163,
      "protect": 6164,
      "nothing": 6165,
      "decl": 6166,
      "comb": 6167,
      "benef": 6168,
      "equ": 6169,
      "check": 6170,
      "result": 6171,
      "wards": 6172,
      "South": 6173,
      "white": 6174,
      "2017": 6175,
      "issues": 6176,
      "nat": 6177,
      ".)": 6178,
      "decision": 6179,
      "Washington": 6180,
      "imate": 6181,
      "Wil": 6182,
      "points": 6183,
      "rote": 6184,
      "iday": 6185,
      "docu": 6186,
      "else": 6187,
      "create": 6188,
      "ention": 6189,
      "played": 6190,
      "uff": 6191,
      "2012": 6192,
      "statement": 6193,
      "cand": 6194,
      "tit": 6195,
      "artment": 6196,
      "amoun": 6197,
      "ming": 6198,
      "final": 6199,
      "draw": 6200,
      "manag": 6201,
      "federal": 6202,
      "rate": 6203,
      "third": 6204,
      "lies": 6205,
      "service": 6206,
      "anc": 6207,
      "reme": 6208,
      "model": 6209,
      "ull": 6210,
      "Pe": 6211,
      "China": 6212,
      "ham": 6213,
      "wrote": 6214,
      "target": 6215,
      "anger": 6216,
      "Pho": 6217,
      "role": 6218,
      "stat": 6219,
      "signific": 6220,
      "states": 6221,
      "further": 6222,
      "Jan": 6223,
      "building": 6224,
      "sell": 6225,
      "development": 6226,
      "viron": 6227,
      "begin": 6228,
      "however": 6229,
      "companies": 6230,
      "attle": 6231,
      "Med": 6232,
      "ES": 6233,
      "load": 6234,
      "26": 6235,
      "whole": 6236,
      "28": 6237,
      "conf": 6238,
      "everything": 6239,
      "29": 6240,
      "dou": 6241,
      "sound": 6242,
      "common": 6243,
      "ana": 6244,
      "inste": 6245,
      "track": 6246,
      "star": 6247,
      "represent": 6248,
      "released": 6249,
      "utes": 6250,
      "seems": 6251,
      "energy": 6252,
      "general": 6253,
      "administ": 6254,
      "true": 6255,
      "70": 6256,
      "leaders": 6257,
      "ging": 6258,
      "lish": 6259,
      "execut": 6260,
      "matter": 6261,
      "meas": 6262,
      "ively": 6263,
      "uation": 6264,
      "cit": 6265,
      "word": 6266,
      "match": 6267,
      "ife": 6268,
      "officials": 6269,
      "elt": 6270,
      "saw": 6271,
      "specific": 6272,
      "became": 6273,
      "ai": 6274,
      "itted": 6275,
      "dle": 6276,
      "anim": 6277,
      "evidence": 6278,
      "Per": 6279,
      "sto": 6280,
      "began": 6281,
      "custom": 6282,
      "jud": 6283,
      "chall": 6284,
      "shot": 6285,
      "host": 6286,
      "ford": 6287,
      "changes": 6288,
      "personal": 6289,
      "asing": 6290,
      "office": 6291,
      "term": 6292,
      "pite": 6293,
      "ief": 6294,
      "wasn": 6295,
      "init": 6296,
      "ender": 6297,
      "era": 6298,
      "character": 6299,
      "hours": 6300,
      "Fl": 6301,
      "mis": 6302,
      "inj": 6303,
      "pie": 6304,
      "words": 6305,
      "mag": 6306,
      "aut": 6307,
      "Sep": 6308,
      "crim": 6309,
      "held": 6310,
      "mot": 6311,
      "profess": 6312,
      "News": 6313,
      "Sc": 6314,
      "link": 6315,
      "appear": 6316,
      "ently": 6317,
      "continue": 6318,
      "medi": 6319,
      "drug": 6320,
      "itself": 6321,
      "htt": 6322,
      "playing": 6323,
      "aul": 6324,
      "els": 6325,
      "needed": 6326,
      "diffic": 6327,
      "App": 6328,
      "outside": 6329,
      "anti": 6330,
      "students": 6331,
      "lement": 6332,
      "lab": 6333,
      "Face": 6334,
      "urs": 6335,
      "election": 6336,
      "tru": 6337,
      "running": 6338,
      "launch": 6339,
      "Mus": 6340,
      "White": 6341,
      "groups": 6342,
      "espe": 6343,
      "himself": 6344,
      "Twit": 6345,
      "above": 6346,
      "typ": 6347,
      "interview": 6348,
      "countries": 6349,
      "gir": 6350,
      "ades": 6351,
      "ried": 6352,
      "lam": 6353,
      "continu": 6354,
      "Ne": 6355,
      "reco": 6356,
      "ox": 6357,
      "especially": 6358,
      "provide": 6359,
      "AM": 6360,
      "themselves": 6361,
      "worth": 6362,
      "approach": 6363,
      "vironment": 6364,
      "significant": 6365,
      "Cor": 6366,
      "ify": 6367,
      "AR": 6368,
      "release": 6369,
      "simply": 6370,
      "vision": 6371,
      "value": 6372,
      "type": 6373,
      "include": 6374,
      "ends": 6375,
      "pose": 6376,
      "deli": 6377,
      "address": 6378,
      "vic": 6379,
      "arr": 6380,
      "forward": 6381,
      "music": 6382,
      "lock": 6383,
      "pack": 6384,
      "duct": 6385,
      "://": 6386,
      "quality": 6387,
      "ands": 6388,
      "div": 6389,
      "lower": 6390,
      "urch": 6391,
      "uni": 6392,
      "198": 6393,
      "ilt": 6394,
      "needs": 6395,
      "function": 6396,
      "Her": 6397,
      "thod": 6398,
      "rac": 6399,
      "unity": 6400,
      "cir": 6401,
      "Twitter": 6402,
      "below": 6403,
      "Em": 6404,
      "economic": 6405,
      "believ": 6406,
      "redu": 6407,
      "commit": 6408,
      "expected": 6409,
      "everyone": 6410,
      "tee": 6411,
      "total": 6412,
      "industry": 6413,
      "pain": 6414,
      "stay": 6415,
      "relig": 6416,
      "TV": 6417,
      "relation": 6418,
      "push": 6419,
      "code": 6420,
      "ery": 6421,
      "treat": 6422,
      "lost": 6423,
      "wind": 6424,
      "instead": 6425,
      "ournal": 6426,
      "sequ": 6427,
      "vari": 6428,
      "cil": 6429,
      "angu": 6430,
      "Am": 6431,
      "vote": 6432,
      "audi": 6433,
      "pretty": 6434,
      "Here": 6435,
      "billion": 6436,
      "hor": 6437,
      "candid": 6438,
      "deter": 6439,
      "Photo": 6440,
      "Facebook": 6441,
      "nation": 6442,
      "Red": 6443,
      "quite": 6444,
      "super": 6445,
      "shows": 6446,
      "necess": 6447,
      "itch": 6448,
      "phys": 6449,
      "Qu": 6450,
      "log": 6451,
      "35": 6452,
      "Act": 6453,
      "sense": 6454,
      "strate": 6455,
      "II": 6456,
      "Oc": 6457,
      "sess": 6458,
      "AC": 6459,
      "iding": 6460,
      "shoot": 6461,
      "accept": 6462,
      "gas": 6463,
      "ports": 6464,
      "March": 6465,
      "spir": 6466,
      "quar": 6467,
      "respect": 6468,
      "hol": 6469,
      "Sm": 6470,
      "According": 6471,
      "Of": 6472,
      "serious": 6473,
      "joy": 6474,
      "ogle": 6475,
      "sed": 6476,
      "popular": 6477,
      "Ear": 6478,
      "More": 6479,
      "demand": 6480,
      "Aug": 6481,
      "Par": 6482,
      "recently": 6483,
      "higher": 6484,
      "Ab": 6485,
      "period": 6486,
      "weeks": 6487,
      "spect": 6488,
      "alleg": 6489,
      "core": 6490,
      "emp": 6491,
      "comput": 6492,
      "2010": 6493,
      "Su": 6494,
      "Republican": 6495,
      "God": 6496,
      "2011": 6497,
      "bert": 6498,
      "opport": 6499,
      "review": 6500,
      "Des": 6501,
      "goal": 6502,
      "ples": 6503,
      "soon": 6504,
      "educ": 6505,
      "moved": 6506,
      "ino": 6507,
      "cred": 6508,
      "sat": 6509,
      "Gre": 6510,
      "connect": 6511,
      "rup": 6512,
      "rown": 6513,
      "Lo": 6514,
      "uel": 6515,
      "online": 6516,
      "compl": 6517,
      "hood": 6518,
      "oud": 6519,
      "heart": 6520,
      "killed": 6521,
      "Off": 6522,
      "wrong": 6523,
      "famil": 6524,
      "express": 6525,
      "moment": 6526,
      "Cour": 6527,
      "terror": 6528,
      "pan": 6529,
      "prim": 6530,
      "rew": 6531,
      "sw": 6532,
      "Department": 6533,
      "fair": 6534,
      "Apr": 6535,
      "friends": 6536,
      "page": 6537,
      "forman": 6538,
      "dead": 6539,
      "Austral": 6540,
      "June": 6541,
      "Fir": 6542,
      "difficult": 6543,
      "coup": 6544,
      "contract": 6545,
      "AP": 6546,
      "TH": 6547,
      "Even": 6548,
      "ners": 6549,
      "via": 6550,
      "July": 6551,
      "Syri": 6552,
      "sha": 6553,
      "longer": 6554,
      "surpr": 6555,
      "article": 6556,
      "potential": 6557,
      "tro": 6558,
      "Cong": 6559,
      "scri": 6560,
      "refer": 6561,
      "finan": 6562,
      "technology": 6563,
      "Google": 6564,
      "covered": 6565,
      "AL": 6566,
      "bon": 6567,
      "announced": 6568,
      "**": 6569,
      "cases": 6570,
      "San": 6571,
      "ken": 6572,
      "sold": 6573,
      "haps": 6574,
      "risk": 6575,
      "coach": 6576,
      "==": 6577,
      "results": 6578,
      "object": 6579,
      "speak": 6580,
      "flo": 6581,
      "print": 6582,
      "aterial": 6583,
      "base": 6584,
      "account": 6585,
      "moder": 6586,
      "amount": 6587,
      "problems": 6588,
      "ption": 6589,
      "Americans": 6590,
      "original": 6591,
      "applic": 6592,
      "ping": 6593,
      "created": 6594,
      "Friday": 6595,
      "received": 6596,
      "April": 6597,
      "contribut": 6598,
      "services": 6599,
      "price": 6600,
      "questions": 6601,
      "actions": 6602,
      "users": 6603,
      "apan": 6604,
      "club": 6605,
      "protest": 6606,
      "anyone": 6607,
      "minutes": 6608,
      "attempt": 6609,
      "Hill": 6610,
      "hi": 6611,
      "ember": 6612,
      "Sat": 6613,
      "private": 6614,
      "easy": 6615,
      "vict": 6616,
      "civil": 6617,
      "Geor": 6618,
      "ze": 6619,
      "earlier": 6620,
      "estab": 6621,
      "scient": 6622,
      "Congress": 6623,
      "heav": 6624,
      "comment": 6625,
      "Cr": 6626,
      "pred": 6627,
      "international": 6628,
      "opt": 6629,
      "OR": 6630,
      "David": 6631,
      "average": 6632,
      "content": 6633,
      "increase": 6634,
      "living": 6635,
      "Japan": 6636,
      "First": 6637,
      "environment": 6638,
      "collect": 6639,
      "gets": 6640,
      "na": 6641,
      "tou": 6642,
      "45": 6643,
      "ites": 6644,
      "performan": 6645,
      "Te": 6646,
      "langu": 6647,
      "favor": 6648,
      "arrest": 6649,
      "ung": 6650,
      "ilities": 6651,
      "fill": 6652,
      "reve": 6653,
      "style": 6654,
      "counter": 6655,
      "involved": 6656,
      "isl": 6657,
      "alter": 6658,
      "impact": 6659,
      "leave": 6660,
      "firm": 6661,
      "reports": 6662,
      "exact": 6663,
      "hope": 6664,
      "ometimes": 6665,
      "aging": 6666,
      "lied": 6667,
      "van": 6668,
      "verse": 6669,
      "subject": 6670,
      "published": 6671,
      "worked": 6672,
      "nearly": 6673,
      "cup": 6674,
      "arm": 6675,
      "regard": 6676,
      "cannot": 6677,
      "staff": 6678,
      "sort": 6679,
      "responsi": 6680,
      "turned": 6681,
      "global": 6682,
      "Pal": 6683,
      "ugg": 6684,
      "99": 6685,
      "fre": 6686,
      "lying": 6687,
      "source": 6688,
      "Char": 6689,
      "Monday": 6690,
      "Post": 6691,
      "lin": 6692,
      "omb": 6693,
      "member": 6694,
      "fast": 6695,
      "request": 6696,
      "ffer": 6697,
      "Mark": 6698,
      "father": 6699,
      "lack": 6700,
      "lex": 6701,
      "Tues": 6702,
      "size": 6703,
      "Donald": 6704,
      "deep": 6705,
      "][": 6706,
      "race": 6707,
      "director": 6708,
      "decided": 6709,
      "nia": 6710,
      "tor": 6711,
      "broad": 6712,
      "sem": 6713,
      "west": 6714,
      "weap": 6715,
      "thern": 6716,
      "lines": 6717,
      "associ": 6718,
      "response": 6719,
      "ring": 6720,
      "mother": 6721,
      "gave": 6722,
      "answer": 6723,
      "happened": 6724,
      "pet": 6725,
      "inside": 6726,
      "workers": 6727,
      "Wed": 6728,
      "ctor": 6729,
      "OS": 6730,
      "buy": 6731,
      "Tuesday": 6732,
      "IC": 6733,
      "\".": 6734,
      "tre": 6735,
      "Paul": 6736,
      "dol": 6737,
      "onto": 6738,
      "bel": 6739,
      "capital": 6740,
      "indic": 6741,
      "tember": 6742,
      "dig": 6743,
      "Sch": 6744,
      "whose": 6745,
      "rock": 6746,
      "intro": 6747,
      "chance": 6748,
      "Stre": 6749,
      "itten": 6750,
      "September": 6751,
      "ote": 6752,
      "terms": 6753,
      "recogn": 6754,
      "197": 6755,
      "EN": 6756,
      "foreign": 6757,
      "immedi": 6758,
      "90": 6759,
      "Israel": 6760,
      "emer": 6761,
      "Then": 6762,
      "Get": 6763,
      "built": 6764,
      "Canada": 6765,
      "January": 6766,
      "British": 6767,
      "simple": 6768,
      "material": 6769,
      "takes": 6770,
      "related": 6771,
      "screen": 6772,
      "Mi": 6773,
      "squ": 6774,
      "oil": 6775,
      "influ": 6776,
      "itor": 6777,
      "relationship": 6778,
      "aving": 6779,
      "Court": 6780,
      "East": 6781,
      "fem": 6782,
      "El": 6783,
      "arri": 6784,
      "grad": 6785,
      "Spe": 6786,
      "currently": 6787,
      "hot": 6788,
      "engine": 6789,
      "Star": 6790,
      "ica": 6791,
      "wood": 6792,
      "izing": 6793,
      "Cali": 6794,
      "European": 6795,
      "require": 6796,
      "Islam": 6797,
      "Park": 6798,
      "fans": 6799,
      "situation": 6800,
      "production": 6801,
      "struction": 6802,
      "email": 6803,
      "areas": 6804,
      "nu": 6805,
      "huge": 6806,
      "Ag": 6807,
      "\",": 6808,
      "plans": 6809,
      "neigh": 6810,
      "particip": 6811,
      "pict": 6812,
      "Califor": 6813,
      "felt": 6814,
      "perform": 6815,
      "corpor": 6816,
      "vertis": 6817,
      "events": 6818,
      "Black": 6819,
      "atives": 6820,
      "Nove": 6821,
      "avo": 6822,
      "From": 6823,
      "administration": 6824,
      "financial": 6825,
      "heard": 6826,
      "August": 6827,
      "Thurs": 6828,
      "goes": 6829,
      "cam": 6830,
      "ows": 6831,
      "Wednes": 6832,
      "couple": 6833,
      "Phil": 6834,
      "tool": 6835,
      "occur": 6836,
      "stant": 6837,
      "lay": 6838,
      "thous": 6839,
      "inv": 6840,
      "Russia": 6841,
      "walk": 6842,
      "33": 6843,
      "Cap": 6844,
      "ani": 6845,
      "atory": 6846,
      "IT": 6847,
      "loss": 6848,
      "rect": 6849,
      "November": 6850,
      "Dis": 6851,
      "Pet": 6852,
      "secret": 6853,
      "lives": 6854,
      "mp": 6855,
      "fell": 6856,
      "Well": 6857,
      "method": 6858,
      "Wednesday": 6859,
      "clus": 6860,
      "Why": 6861,
      "ij": 6862,
      "cli": 6863,
      "Thursday": 6864,
      "ift": 6865,
      "Our": 6866,
      "letter": 6867,
      "rain": 6868,
      "Every": 6869,
      "2009": 6870,
      "speed": 6871,
      "bot": 6872,
      "seven": 6873,
      "text": 6874,
      "quickly": 6875,
      "conduct": 6876,
      "California": 6877,
      "trade": 6878,
      "Sup": 6879,
      "allowed": 6880,
      "UK": 6881,
      "leading": 6882,
      "aled": 6883,
      "rid": 6884,
      "mention": 6885,
      "teams": 6886,
      "meeting": 6887,
      "liam": 6888,
      "ky": 6889,
      "dog": 6890,
      "separ": 6891,
      "Afr": 6892,
      "spent": 6893,
      "tele": 6894,
      "coin": 6895,
      "possib": 6896,
      "wo": 6897,
      "affect": 6898,
      "travel": 6899,
      "performance": 6900,
      "Wal": 6901,
      "repe": 6902,
      "safe": 6903,
      "ED": 6904,
      "?”": 6905,
      "Let": 6906,
      "Times": 6907,
      "tober": 6908,
      "ival": 6909,
      "Sunday": 6910,
      "prison": 6911,
      "knew": 6912,
      "forces": 6913,
      "career": 6914,
      "ases": 6915,
      "Mor": 6916,
      "legisl": 6917,
      "introdu": 6918,
      "growth": 6919,
      "website": 6920,
      "ises": 6921,
      "October": 6922,
      "istic": 6923,
      "victim": 6924,
      "cing": 6925,
      "population": 6926,
      "progress": 6927,
      "Up": 6928,
      "ceed": 6929,
      ");": 6930,
      "leader": 6931,
      "bul": 6932,
      "enjoy": 6933,
      "Dece": 6934,
      "Ma": 6935,
      "systems": 6936,
      "regular": 6937,
      "aily": 6938,
      "fix": 6939,
      "improve": 6940,
      "citiz": 6941,
      "included": 6942,
      "tried": 6943,
      "iment": 6944,
      "document": 6945,
      "Sand": 6946,
      "song": 6947,
      "tour": 6948,
      "December": 6949,
      "veh": 6950,
      "196": 6951,
      "range": 6952,
      "written": 6953,
      "named": 6954,
      "dy": 6955,
      "economy": 6956,
      "morning": 6957,
      "independ": 6958,
      "user": 6959,
      "Kore": 6960,
      "perfect": 6961,
      "ico": 6962,
      "beha": 6963,
      "ients": 6964,
      "ny": 6965,
      "bud": 6966,
      "Police": 6967,
      "32": 6968,
      "Fin": 6969,
      "India": 6970,
      "reading": 6971,
      "Sw": 6972,
      "various": 6973,
      "Hol": 6974,
      "hael": 6975,
      "card": 6976,
      "demon": 6977,
      "cul": 6978,
      "King": 6979,
      "natural": 6980,
      "numbers": 6981,
      "image": 6982,
      "aming": 6983,
      "brought": 6984,
      "Party": 6985,
      "aves": 6986,
      "suit": 6987,
      "hear": 6988,
      "looked": 6989,
      "prevent": 6990,
      "erson": 6991,
      "contact": 6992,
      "teach": 6993,
      "ordin": 6994,
      "exc": 6995,
      "ological": 6996,
      "Po": 6997,
      "ctions": 6998,
      "”.": 6999,
      "rules": 7000,
      "sens": 7001,
      "visit": 7002,
      "movement": 7003,
      "ops": 7004,
      "paid": 7005,
      "Center": 7006,
      "considered": 7007,
      "except": 7008,
      "secut": 7009,
      "slow": 7010,
      "Cent": 7011,
      "looks": 7012,
      "31": 7013,
      "calls": 7014,
      "500": 7015,
      "undred": 7016,
      "parents": 7017,
      "suffer": 7018,
      "tware": 7019,
      "wants": 7020,
      "labor": 7021,
      "training": 7022,
      "ID": 7023,
      "income": 7024,
      "Ira": 7025,
      "Most": 7026,
      "yond": 7027,
      "extreme": 7028,
      "table": 7029,
      "ering": 7030,
      "olution": 7031,
      "exam": 7032,
      "Tex": 7033,
      "Lon": 7034,
      "Pat": 7035,
      "arily": 7036,
      "park": 7037,
      "changed": 7038,
      "2008": 7039,
      "depart": 7040,
      "door": 7041,
      "sil": 7042,
      "craft": 7043,
      "network": 7044,
      "anch": 7045,
      "talking": 7046,
      "communic": 7047,
      "ires": 7048,
      "stead": 7049,
      "poor": 7050,
      "Over": 7051,
      "behavi": 7052,
      "fan": 7053,
      "tur": 7054,
      "Iran": 7055,
      "FL": 7056,
      "attention": 7057,
      "focus": 7058,
      "latest": 7059,
      "Iraq": 7060,
      "zz": 7061,
      "giving": 7062,
      "mach": 7063,
      "language": 7064,
      "learn": 7065,
      "Satur": 7066,
      "Gener": 7067,
      "enced": 7068,
      "dollar": 7069,
      "smo": 7070,
      "defense": 7071,
      "Lu": 7072,
      "AD": 7073,
      "upon": 7074,
      "placed": 7075,
      "igence": 7076,
      "36": 7077,
      "FC": 7078,
      "path": 7079,
      "fa": 7080,
      "weet": 7081,
      "conserv": 7082,
      "hands": 7083,
      "Muslim": 7084,
      "critic": 7085,
      "Rom": 7086,
      "sn": 7087,
      "GO": 7088,
      "mur": 7089,
      "rank": 7090,
      "weight": 7091,
      "surve": 7092,
      "Michael": 7093,
      "forms": 7094,
      "Bro": 7095,
      "Street": 7096,
      "ties": 7097,
      "moving": 7098,
      "science": 7099,
      "parts": 7100,
      "regul": 7101,
      "paper": 7102,
      "Ben": 7103,
      "zon": 7104,
      "multip": 7105,
      "Ang": 7106,
      "majority": 7107,
      "ampion": 7108,
      "Read": 7109,
      "immig": 7110,
      "kept": 7111,
      "Senate": 7112,
      "aker": 7113,
      "liber": 7114,
      "Saturday": 7115,
      "install": 7116,
      "writing": 7117,
      "hous": 7118,
      "features": 7119,
      "County": 7120,
      "roy": 7121,
      "employe": 7122,
      "Russian": 7123,
      "stor": 7124,
      "century": 7125,
      "ker": 7126,
      "mill": 7127,
      "ays": 7128,
      "Air": 7129,
      "plat": 7130,
      "analys": 7131,
      "pped": 7132,
      "iction": 7133,
      "consist": 7134,
      "mob": 7135,
      "Oh": 7136,
      "ously": 7137,
      "Che": 7138,
      "http": 7139,
      "rict": 7140,
      "society": 7141,
      "wise": 7142,
      "chief": 7143,
      "required": 7144,
      "icles": 7145,
      "medical": 7146,
      "anned": 7147,
      "journal": 7148,
      "People": 7149,
      "active": 7150,
      "iet": 7151,
      "speech": 7152,
      "fit": 7153,
      "____": 7154,
      "cru": 7155,
      "although": 7156,
      "usually": 7157,
      "addition": 7158,
      "attacks": 7159,
      "completely": 7160,
      "bing": 7161,
      "ST": 7162,
      "34": 7163,
      "imag": 7164,
      "levels": 7165,
      "particularly": 7166,
      "incident": 7167,
      "37": 7168,
      "products": 7169,
      "investigation": 7170,
      "described": 7171,
      "strugg": 7172,
      "rich": 7173,
      "remember": 7174,
      "ledge": 7175,
      "modern": 7176,
      "stitution": 7177,
      "bir": 7178,
      "Tor": 7179,
      "message": 7180,
      "pul": 7181,
      "?\"": 7182,
      "crow": 7183,
      "limited": 7184,
      "effort": 7185,
      "cross": 7186,
      "!!!!!!!!": 7187,
      "hundred": 7188,
      "center": 7189,
      "carry": 7190,
      "xim": 7191,
      "increasing": 7192,
      "Since": 7193,
      "stuff": 7194,
      "James": 7195,
      "wall": 7196,
      "London": 7197,
      "note": 7198,
      "aur": 7199,
      "ert": 7200,
      "assist": 7201,
      "figure": 7202,
      "served": 7203,
      "officers": 7204,
      "Many": 7205,
      "rap": 7206,
      "item": 7207,
      "biggest": 7208,
      "interesting": 7209,
      "eight": 7210,
      "resour": 7211,
      "spokes": 7212,
      "bol": 7213,
      "danger": 7214,
      "Jew": 7215,
      "despite": 7216,
      "exactly": 7217,
      "prior": 7218,
      "Lab": 7219,
      "mist": 7220,
      "quarter": 7221,
      "middle": 7222,
      "piece": 7223,
      "laws": 7224,
      "lie": 7225,
      "opportunity": 7226,
      "wel": 7227,
      "inci": 7228,
      "Febr": 7229,
      "Sci": 7230,
      "claims": 7231,
      "sometimes": 7232,
      "plant": 7233,
      "Democratic": 7234,
      "sett": 7235,
      "February": 7236,
      "standard": 7237,
      "growing": 7238,
      "Republicans": 7239,
      "girl": 7240,
      "books": 7241,
      "ape": 7242,
      "obvious": 7243,
      "guy": 7244,
      "cry": 7245,
      "nom": 7246,
      "jobs": 7247,
      "option": 7248,
      "native": 7249,
      "histor": 7250,
      "cele": 7251,
      "thinking": 7252,
      "Ke": 7253,
      "intell": 7254,
      "spot": 7255,
      "violence": 7256,
      "practice": 7257,
      "mat": 7258,
      "mine": 7259,
      "44": 7260,
      "thus": 7261,
      "finally": 7262,
      "Bill": 7263,
      "extra": 7264,
      "League": 7265,
      "psy": 7266,
      "rit": 7267,
      "Rich": 7268,
      "sexual": 7269,
      "mic": 7270,
      "continued": 7271,
      "boy": 7272,
      "Tur": 7273,
      "write": 7274,
      "inese": 7275,
      "BI": 7276,
      "forced": 7277,
      "stories": 7278,
      "perhaps": 7279,
      "store": 7280,
      "increased": 7281,
      "alone": 7282,
      "ode": 7283,
      "edom": 7284,
      "appoint": 7285,
      "correct": 7286,
      "spr": 7287,
      "starting": 7288,
      "skill": 7289,
      "ida": 7290,
      "vice": 7291,
      "saf": 7292,
      "purch": 7293,
      "born": 7294,
      "lap": 7295,
      "EU": 7296,
      "Mart": 7297,
      "entially": 7298,
      "deliver": 7299,
      "implement": 7300,
      "necessary": 7301,
      "choice": 7302,
      "aries": 7303,
      "certainly": 7304,
      "map": 7305,
      "ries": 7306,
      "Chinese": 7307,
      "sle": 7308,
      "istan": 7309,
      "38": 7310,
      "kids": 7311,
      "ican": 7312,
      "za": 7313,
      "rench": 7314,
      "ension": 7315,
      "remain": 7316,
      "Ho": 7317,
      "reality": 7318,
      "stage": 7319,
      "umb": 7320,
      "wonder": 7321,
      "Texas": 7322,
      "culture": 7323,
      "movie": 7324,
      "property": 7325,
      "summer": 7326,
      "details": 7327,
      "rep": 7328,
      "hair": 7329,
      "join": 7330,
      "ishing": 7331,
      "ened": 7332,
      "Last": 7333,
      "select": 7334,
      "soft": 7335,
      "wife": 7336,
      "appeared": 7337,
      "vertisement": 7338,
      "Val": 7339,
      "Thank": 7340,
      "Play": 7341,
      "ses": 7342,
      "title": 7343,
      "Bu": 7344,
      "standing": 7345,
      "capt": 7346,
      "file": 7347,
      "forts": 7348,
      "remains": 7349,
      "George": 7350,
      "surv": 7351,
      "UN": 7352,
      "PS": 7353,
      "blood": 7354,
      "hur": 7355,
      "Indian": 7356,
      "climate": 7357,
      "Because": 7358,
      "lic": 7359,
      "comments": 7360,
      "passed": 7361,
      "celebr": 7362,
      "ights": 7363,
      "software": 7364,
      "happy": 7365,
      "designed": 7366,
      "provided": 7367,
      "gone": 7368,
      "High": 7369,
      "Like": 7370,
      "Au": 7371,
      "maintain": 7372,
      "Apple": 7373,
      "spital": 7374,
      "ification": 7375,
      "zer": 7376,
      "inte": 7377,
      "showed": 7378,
      "costs": 7379,
      "voters": 7380,
      "Although": 7381,
      "directly": 7382,
      "Str": 7383,
      "yn": 7384,
      "additional": 7385,
      "beyond": 7386,
      "scene": 7387,
      "CO": 7388,
      "Green": 7389,
      "damage": 7390,
      "football": 7391,
      "safety": 7392,
      "complex": 7393,
      "PC": 7394,
      "utions": 7395,
      "aughter": 7396,
      "bes": 7397,
      "48": 7398,
      "Net": 7399,
      "neg": 7400,
      "died": 7401,
      "cris": 7402,
      "computer": 7403,
      "arent": 7404,
      "bum": 7405,
      "charge": 7406,
      "stra": 7407,
      "clean": 7408,
      "tin": 7409,
      "ening": 7410,
      "multiple": 7411,
      "wouldn": 7412,
      "blog": 7413,
      "Ber": 7414,
      "religious": 7415,
      "education": 7416,
      "rates": 7417,
      "Minister": 7418,
      "pressure": 7419,
      "atever": 7420,
      "claimed": 7421,
      "Jack": 7422,
      "region": 7423,
      "challeng": 7424,
      "www": 7425,
      "Mex": 7426,
      "Associ": 7427,
      "Bre": 7428,
      "rout": 7429,
      "German": 7430,
      "suspect": 7431,
      "meaning": 7432,
      "command": 7433,
      "(@": 7434,
      "ables": 7435,
      "aly": 7436,
      "iff": 7437,
      "relative": 7438,
      "recomm": 7439,
      "reli": 7440,
      "efforts": 7441,
      "drive": 7442,
      "officer": 7443,
      "Tod": 7444,
      "includes": 7445,
      "presidential": 7446,
      "couldn": 7447,
      "Tom": 7448,
      "idge": 7449,
      "gar": 7450,
      "towards": 7451,
      "Day": 7452,
      "largest": 7453,
      "guys": 7454,
      "ware": 7455,
      "section": 7456,
      "uk": 7457,
      "strict": 7458,
      "trust": 7459,
      "Gover": 7460,
      "central": 7461,
      "Smith": 7462,
      "sites": 7463,
      "39": 7464,
      "49": 7465,
      "Image": 7466,
      "appears": 7467,
      "touch": 7468,
      "throw": 7469,
      "copy": 7470,
      "thousands": 7471,
      "55": 7472,
      "conference": 7473,
      "receive": 7474,
      "advant": 7475,
      "CE": 7476,
      "device": 7477,
      "flow": 7478,
      "convers": 7479,
      "color": 7480,
      "sets": 7481,
      "scr": 7482,
      "difference": 7483,
      "aint": 7484,
      "cool": 7485,
      "epis": 7486,
      "enge": 7487,
      "respond": 7488,
      "aud": 7489,
      "venue": 7490,
      "astic": 7491,
      "throughout": 7492,
      "organization": 7493,
      "zing": 7494,
      "debate": 7495,
      "conditions": 7496,
      "Sal": 7497,
      "acqu": 7498,
      "resh": 7499,
      "effects": 7500,
      "battle": 7501,
      "insur": 7502,
      "adem": 7503,
      "feed": 7504,
      "airs": 7505,
      "immediately": 7506,
      "ahead": 7507,
      "beginning": 7508,
      "agree": 7509,
      "student": 7510,
      "Germany": 7511,
      "reasons": 7512,
      "nature": 7513,
      "league": 7514,
      "toward": 7515,
      "akers": 7516,
      "brain": 7517,
      "frequ": 7518,
      "opin": 7519,
      "nuclear": 7520,
      "Thom": 7521,
      "reng": 7522,
      "SE": 7523,
      "mitted": 7524,
      "Bel": 7525,
      "Democrats": 7526,
      "shop": 7527,
      "estim": 7528,
      "MP": 7529,
      "failed": 7530,
      "analysis": 7531,
      "encour": 7532,
      "signed": 7533,
      "criminal": 7534,
      "crime": 7535,
      "consum": 7536,
      "agency": 7537,
      "encies": 7538,
      "ufact": 7539,
      "hab": 7540,
      "controll": 7541,
      "iers": 7542,
      "bri": 7543,
      "47": 7544,
      "Your": 7545,
      "Trans": 7546,
      "unk": 7547,
      "places": 7548,
      "hest": 7549,
      "eyes": 7550,
      "————": 7551,
      "English": 7552,
      "alleged": 7553,
      "inde": 7554,
      "normal": 7555,
      "During": 7556,
      "stream": 7557,
      "earch": 7558,
      "prep": 7559,
      "ality": 7560,
      "owners": 7561,
      "distribut": 7562,
      "Super": 7563,
      "stock": 7564,
      "setting": 7565,
      "inated": 7566,
      "ope": 7567,
      "shown": 7568,
      "developed": 7569,
      "agon": 7570,
      "Earth": 7571,
      "budget": 7572,
      "confir": 7573,
      "berg": 7574,
      "2007": 7575,
      "SA": 7576,
      "Reg": 7577,
      "meant": 7578,
      "lands": 7579,
      "counts": 7580,
      "ateg": 7581,
      "dark": 7582,
      "Two": 7583,
      "ield": 7584,
      "truth": 7585,
      "lease": 7586,
      "instit": 7587,
      "Jer": 7588,
      "sched": 7589,
      "ado": 7590,
      "helped": 7591,
      "liter": 7592,
      "names": 7593,
      "feature": 7594,
      "Law": 7595,
      "beat": 7596,
      "powerful": 7597,
      "politics": 7598,
      "princi": 7599,
      "Mid": 7600,
      "gold": 7601,
      "wing": 7602,
      "executive": 7603,
      "susp": 7604,
      "allows": 7605,
      "yourself": 7606,
      "antic": 7607,
      "maybe": 7608,
      "solute": 7609,
      "avoid": 7610,
      "prem": 7611,
      "International": 7612,
      "grand": 7613,
      "fear": 7614,
      "schools": 7615,
      "eventually": 7616,
      "spending": 7617,
      "poll": 7618,
      "Australia": 7619,
      "murder": 7620,
      "Cam": 7621,
      "compared": 7622,
      "ission": 7623,
      "minim": 7624,
      "Other": 7625,
      "gives": 7626,
      "positive": 7627,
      "smart": 7628,
      "upd": 7629,
      "Bit": 7630,
      "Mac": 7631,
      "assa": 7632,
      "teen": 7633,
      "ultim": 7634,
      "myself": 7635,
      "School": 7636,
      "physical": 7637,
      "stic": 7638,
      "candidate": 7639,
      "ux": 7640,
      "mix": 7641,
      "willing": 7642,
      "overall": 7643,
      "agreement": 7644,
      "station": 7645,
      "detail": 7646,
      "decades": 7647,
      "cities": 7648,
      "sou": 7649,
      "promot": 7650,
      "French": 7651,
      "successful": 7652,
      "streng": 7653,
      "--------": 7654,
      "Syria": 7655,
      "integr": 7656,
      "followed": 7657,
      "General": 7658,
      "green": 7659,
      "Ham": 7660,
      "weapons": 7661,
      "stitute": 7662,
      "families": 7663,
      "Gold": 7664,
      "rise": 7665,
      "lose": 7666,
      "eye": 7667,
      "projects": 7668,
      "college": 7669,
      "Mer": 7670,
      "drink": 7671,
      "unique": 7672,
      "Vir": 7673,
      "tic": 7674,
      "bound": 7675,
      "easily": 7676,
      "OT": 7677,
      "hero": 7678,
      "Sim": 7679,
      "thers": 7680,
      "ari": 7681,
      "nice": 7682,
      "iced": 7683,
      "iew": 7684,
      "vention": 7685,
      "noted": 7686,
      "ivity": 7687,
      "Def": 7688,
      "anced": 7689,
      "omen": 7690,
      "cat": 7691,
      "Wind": 7692,
      "gender": 7693,
      "syn": 7694,
      "75": 7695,
      "voice": 7696,
      "CN": 7697,
      "treatment": 7698,
      "Gl": 7699,
      "continues": 7700,
      "mun": 7701,
      "confl": 7702,
      "Rob": 7703,
      "sec": 7704,
      "fol": 7705,
      "Council": 7706,
      "ideas": 7707,
      "kick": 7708,
      "concept": 7709,
      "characters": 7710,
      "IA": 7711,
      "propos": 7712,
      "ston": 7713,
      "64": 7714,
      "iver": 7715,
      "Angel": 7716,
      "activity": 7717,
      "Lou": 7718,
      "cise": 7719,
      "chan": 7720,
      "senior": 7721,
      "Mal": 7722,
      "ae": 7723,
      "Union": 7724,
      "Christian": 7725,
      "autom": 7726,
      "nov": 7727,
      "lection": 7728,
      "fighting": 7729,
      "church": 7730,
      "psych": 7731,
      "Stud": 7732,
      "iles": 7733,
      "contr": 7734,
      "policies": 7735,
      "Bush": 7736,
      "cum": 7737,
      "enforce": 7738,
      "manufact": 7739,
      "session": 7740,
      "Cal": 7741,
      "cture": 7742,
      "ov": 7743,
      "Are": 7744,
      "peace": 7745,
      "determin": 7746,
      "individuals": 7747,
      "crisis": 7748,
      "bs": 7749,
      "impress": 7750,
      "temper": 7751,
      "sea": 7752,
      "fortun": 7753,
      "reached": 7754,
      "Bay": 7755,
      "benefits": 7756,
      "winning": 7757,
      "rule": 7758,
      "sco": 7759,
      "highly": 7760,
      "Ter": 7761,
      "doub": 7762,
      "calling": 7763,
      "):": 7764,
      "serve": 7765,
      "feet": 7766,
      "intelligence": 7767,
      "Ry": 7768,
      "sey": 7769,
      "minor": 7770,
      "Flor": 7771,
      "Advertisement": 7772,
      "Ano": 7773,
      "ram": 7774,
      "sor": 7775,
      "ET": 7776,
      "expand": 7777,
      "customers": 7778,
      "hon": 7779,
      "comfort": 7780,
      "riage": 7781,
      "previously": 7782,
      "apped": 7783,
      "status": 7784,
      "display": 7785,
      "scale": 7786,
      "die": 7787,
      "Mag": 7788,
      "aware": 7789,
      "measure": 7790,
      "Another": 7791,
      "studies": 7792,
      "Bank": 7793,
      "send": 7794,
      "cars": 7795,
      "birth": 7796,
      "apparent": 7797,
      "Also": 7798,
      "neighbor": 7799,
      "charges": 7800,
      "Tech": 7801,
      "beaut": 7802,
      "PM": 7803,
      "aste": 7804,
      "analy": 7805,
      "closed": 7806,
      "Det": 7807,
      "Follow": 7808,
      "adding": 7809,
      "brand": 7810,
      "knowledge": 7811,
      "itely": 7812,
      "minister": 7813,
      "caused": 7814,
      "straight": 7815,
      "funding": 7816,
      "CH": 7817,
      "Yes": 7818,
      "Arab": 7819,
      "eth": 7820,
      "Sanders": 7821,
      "chair": 7822,
      "mostly": 7823,
      "Once": 7824,
      "operation": 7825,
      "fine": 7826,
      "lor": 7827,
      "Alex": 7828,
      "PA": 7829,
      "Scott": 7830,
      "clearly": 7831,
      "task": 7832,
      "album": 7833,
      "Any": 7834,
      "lif": 7835,
      "seemed": 7836,
      "greater": 7837,
      "origin": 7838,
      "bomb": 7839,
      "edge": 7840,
      "shooting": 7841,
      "credit": 7842,
      "fle": 7843,
      "coal": 7844,
      "goals": 7845,
      "seeing": 7846,
      "predict": 7847,
      "suppor": 7848,
      "org": 7849,
      "sales": 7850,
      "moun": 7851,
      "Press": 7852,
      "save": 7853,
      "primary": 7854,
      "larger": 7855,
      "mental": 7856,
      "fee": 7857,
      "Who": 7858,
      "options": 7859,
      "frame": 7860,
      "ube": 7861,
      "absolute": 7862,
      "patients": 7863,
      "Internet": 7864,
      "46": 7865,
      "sad": 7866,
      "phen": 7867,
      "enem": 7868,
      "scen": 7869,
      "commer": 7870,
      "France": 7871,
      "repor": 7872,
      "spend": 7873,
      "citizens": 7874,
      "reflect": 7875,
      "Big": 7876,
      "rare": 7877,
      "stood": 7878,
      "whatever": 7879,
      "produce": 7880,
      "Hum": 7881,
      "Sha": 7882,
      "challenge": 7883,
      "da": 7884,
      "fal": 7885,
      "ength": 7886,
      "Met": 7887,
      "bab": 7888,
      "knows": 7889,
      "massive": 7890,
      "La": 7891,
      "wait": 7892,
      "roid": 7893,
      "produced": 7894,
      "tick": 7895,
      "Chic": 7896,
      "je": 7897,
      "Cur": 7898,
      "vs": 7899,
      "supposed": 7900,
      "iar": 7901,
      "inch": 7902,
      "Ty": 7903,
      "Mil": 7904,
      "See": 7905,
      "Hillary": 7906,
      "aling": 7907,
      "establish": 7908,
      "Sam": 7909,
      "Florida": 7910,
      "organiz": 7911,
      "orders": 7912,
      ".’": 7913,
      "isions": 7914,
      "fat": 7915,
      "shut": 7916,
      "basic": 7917,
      "ante": 7918,
      "Art": 7919,
      "goti": 7920,
      "democr": 7921,
      "traditional": 7922,
      "42": 7923,
      "female": 7924,
      "asy": 7925,
      "leaving": 7926,
      "street": 7927,
      "Canadian": 7928,
      "creating": 7929,
      "GB": 7930,
      "ked": 7931,
      "Instead": 7932,
      "ease": 7933,
      "resources": 7934,
      "tend": 7935,
      "haven": 7936,
      "sun": 7937,
      "virt": 7938,
      "ensure": 7939,
      "raised": 7940,
      "Western": 7941,
      "images": 7942,
      "trou": 7943,
      "prosecut": 7944,
      "ream": 7945,
      "asking": 7946,
      "revol": 7947,
      "Ver": 7948,
      "sources": 7949,
      "ta": 7950,
      "critical": 7951,
      "agreed": 7952,
      "stick": 7953,
      "England": 7954,
      "manager": 7955,
      "Rev": 7956,
      "ville": 7957,
      "Port": 7958,
      "emot": 7959,
      "LA": 7960,
      "memory": 7961,
      "concerns": 7962,
      "offered": 7963,
      "usion": 7964,
      "authorities": 7965,
      "Chicago": 7966,
      "jump": 7967,
      "enty": 7968,
      "Ru": 7969,
      "asc": 7970,
      "catch": 7971,
      "Game": 7972,
      "programs": 7973,
      "iled": 7974,
      "drop": 7975,
      "hospital": 7976,
      "stone": 7977,
      "clud": 7978,
      "actual": 7979,
      "demonstr": 7980,
      "appropri": 7981,
      "limit": 7982,
      "PR": 7983,
      "Those": 7984,
      "etc": 7985,
      "researchers": 7986,
      "Today": 7987,
      "freedom": 7988,
      "mechan": 7989,
      "Tal": 7990,
      "species": 7991,
      "Mike": 7992,
      "65": 7993,
      "values": 7994,
      "posted": 7995,
      "lawy": 7996,
      "affic": 7997,
      "fund": 7998,
      "types": 7999
    },
    "merges": [
      [
        "t",
        "h"
      ],
      [
        "i",
        "n"
      ],
      [
        "e",
        "r"
      ],
      [
        "a",
        "n"
      ],
      [
        "th",
        "e"
      ],
      [
        "o",
        "n"
      ],
      [
        "r",
        "e"
      ],
      [
        "a",
        "t"
      ],
      [
        "e",
        "n"
      ],
      [
        "o",
        "r"
      ],
      [
        "s",
        "t"
      ],
      [
        "e",
        "d"
      ],
      [
        "a",
        "l"
      ],
      [
        "o",
        "u"
      ],
      [
        "in",
        "g"
      ],
      [
        "t",
        "o"
      ],
      [
        "i",
        "s"
      ],
      [
        "a",
        "r"
      ],
      [
        "i",
        "t"
      ],
      [
        "e",
        "s"
      ],
      [
        "o",
        "f"
      ],
      [
        "an",
        "d"
      ],
      [
        "a",
        "s"
      ],
      [
        "i",
        "c"
      ],
      [
        "l",
        "e"
      ],
      [
        "i",
        "on"
      ],
      [
        "o",
        "m"
      ],
      [
        "h",
        "e"
      ],
      [
        "en",
        "t"
      ],
      [
        "s",
        "e"
      ],
      [
        "i",
        "l"
      ],
      [
        "a",
        "c"
      ],
      [
        "b",
        "e"
      ],
      [
        "v",
        "e"
      ],
      [
        "l",
        "y"
      ],
      [
        "i",
        "d"
      ],
      [
        "r",
        "o"
      ],
      [
        "a",
        "d"
      ],
      [
        "f",
        "or"
      ],
      [
        "a",
        "m"
      ],
      [
        "th",
        "at"
      ],
      [
        "c",
        "h"
      ],
      [
        "o",
        "w"
      ],
      [
        "a",
        "y"
      ],
      [
        "w",
        "h"
      ],
      [
        "i",
        "m"
      ],
      [
        "o",
        "l"
      ],
      [
        "i",
        "g"
      ],
      [
        "v",
        "er"
      ],
      [
        "o",
        "t"
      ],
      [
        "u",
        "t"
      ],
      [
        "u",
        "n"
      ],
      [
        "e",
        "t"
      ],
      [
        "i",
        "th"
      ],
      [
        "u",
        "r"
      ],
      [
        "i",
        "r"
      ],
      [
        "c",
        "e"
      ],
      [
        "d",
        "e"
      ],
      [
        "at",
        "ion"
      ],
      [
        "a",
        "re"
      ],
      [
        "c",
        "t"
      ],
      [
        "a",
        "b"
      ],
      [
        "a",
        "g"
      ],
      [
        "t",
        "er"
      ],
      [
        "c",
        "on"
      ],
      [
        "T",
        "he"
      ],
      [
        "w",
        "ith"
      ],
      [
        "u",
        "s"
      ],
      [
        "l",
        "i"
      ],
      [
        "er",
        "s"
      ],
      [
        "er",
        "e"
      ],
      [
        "e",
        "l"
      ],
      [
        "o",
        "p"
      ],
      [
        "c",
        "om"
      ],
      [
        "m",
        "o"
      ],
      [
        "h",
        "a"
      ],
      [
        "il",
        "l"
      ],
      [
        "s",
        "u"
      ],
      [
        "n",
        "e"
      ],
      [
        "w",
        "as"
      ],
      [
        "y",
        "ou"
      ],
      [
        "l",
        "d"
      ],
      [
        "k",
        "e"
      ],
      [
        "al",
        "l"
      ],
      [
        "p",
        "e"
      ],
      [
        "ou",
        "t"
      ],
      [
        "p",
        "l"
      ],
      [
        "p",
        "ro"
      ],
      [
        "r",
        "i"
      ],
      [
        "at",
        "e"
      ],
      [
        "re",
        "s"
      ],
      [
        "u",
        "l"
      ],
      [
        "w",
        "e"
      ],
      [
        "e",
        "m"
      ],
      [
        "e",
        "x"
      ],
      [
        "a",
        "p"
      ],
      [
        "f",
        "r"
      ],
      [
        "l",
        "o"
      ],
      [
        "ig",
        "h"
      ],
      [
        "a",
        "in"
      ],
      [
        "ou",
        "n"
      ],
      [
        "m",
        "ent"
      ],
      [
        "t",
        "r"
      ],
      [
        "s",
        "h"
      ],
      [
        "on",
        "e"
      ],
      [
        "b",
        "y"
      ],
      [
        "i",
        "f"
      ],
      [
        "s",
        "o"
      ],
      [
        "h",
        "is"
      ],
      [
        "ou",
        "r"
      ],
      [
        "i",
        "st"
      ],
      [
        "n",
        "ot"
      ],
      [
        "ar",
        "t"
      ],
      [
        "an",
        "t"
      ],
      [
        "es",
        "s"
      ],
      [
        "ha",
        "ve"
      ],
      [
        "it",
        "y"
      ],
      [
        "ou",
        "ld"
      ],
      [
        "th",
        "er"
      ],
      [
        "p",
        "o"
      ],
      [
        "t",
        "e"
      ],
      [
        "fr",
        "om"
      ],
      [
        "u",
        "m"
      ],
      [
        "th",
        "is"
      ],
      [
        "s",
        "a"
      ],
      [
        "q",
        "u"
      ],
      [
        "i",
        "ve"
      ],
      [
        "ac",
        "t"
      ],
      [
        "igh",
        "t"
      ],
      [
        "u",
        "st"
      ],
      [
        "p",
        "er"
      ],
      [
        "g",
        "o"
      ],
      [
        "or",
        "t"
      ],
      [
        "en",
        "d"
      ],
      [
        "w",
        "or"
      ],
      [
        "a",
        "st"
      ],
      [
        "g",
        "e"
      ],
      [
        "o",
        "d"
      ],
      [
        "h",
        "as"
      ],
      [
        "f",
        "e"
      ],
      [
        "2",
        "0"
      ],
      [
        "ac",
        "k"
      ],
      [
        "u",
        "p"
      ],
      [
        "d",
        "o"
      ],
      [
        "i",
        "es"
      ],
      [
        "al",
        "ly"
      ],
      [
        "b",
        "ut"
      ],
      [
        "om",
        "e"
      ],
      [
        "e",
        "ar"
      ],
      [
        "g",
        "h"
      ],
      [
        "I",
        "n"
      ],
      [
        "ar",
        "d"
      ],
      [
        "c",
        "l"
      ],
      [
        "an",
        "y"
      ],
      [
        "c",
        "o"
      ],
      [
        "a",
        "k"
      ],
      [
        "m",
        "e"
      ],
      [
        "c",
        "an"
      ],
      [
        "the",
        "y"
      ],
      [
        "a",
        "u"
      ],
      [
        "w",
        "ill"
      ],
      [
        "p",
        "r"
      ],
      [
        "sa",
        "id"
      ],
      [
        "c",
        "i"
      ],
      [
        "in",
        "d"
      ],
      [
        "g",
        "r"
      ],
      [
        "wh",
        "o"
      ],
      [
        "an",
        "s"
      ],
      [
        "ou",
        "gh"
      ],
      [
        "p",
        "ort"
      ],
      [
        "ic",
        "h"
      ],
      [
        "T",
        "h"
      ],
      [
        "e",
        "v"
      ],
      [
        "i",
        "v"
      ],
      [
        "d",
        "er"
      ],
      [
        "am",
        "e"
      ],
      [
        "id",
        "e"
      ],
      [
        "o",
        "k"
      ],
      [
        "the",
        "ir"
      ],
      [
        "n",
        "ow"
      ],
      [
        "ic",
        "e"
      ],
      [
        "mo",
        "re"
      ],
      [
        "a",
        "f"
      ],
      [
        "t",
        "im"
      ],
      [
        "on",
        "g"
      ],
      [
        "e",
        "st"
      ],
      [
        "ag",
        "e"
      ],
      [
        "oun",
        "d"
      ],
      [
        "0",
        "0"
      ],
      [
        "ou",
        "s"
      ],
      [
        "b",
        "l"
      ],
      [
        "re",
        "d"
      ],
      [
        "in",
        "e"
      ],
      [
        "u",
        "d"
      ],
      [
        "ion",
        "s"
      ],
      [
        "n",
        "o"
      ],
      [
        "b",
        "o"
      ],
      [
        "ab",
        "out"
      ],
      [
        "h",
        "ad"
      ],
      [
        "b",
        "er"
      ],
      [
        "s",
        "ome"
      ],
      [
        "of",
        "f"
      ],
      [
        "at",
        "ed"
      ],
      [
        "el",
        "l"
      ],
      [
        "I",
        "t"
      ],
      [
        "y",
        "ear"
      ],
      [
        "d",
        "ay"
      ],
      [
        "it",
        "s"
      ],
      [
        "c",
        "k"
      ],
      [
        "i",
        "e"
      ],
      [
        "f",
        "o"
      ],
      [
        "wh",
        "ich"
      ],
      [
        "w",
        "ere"
      ],
      [
        "in",
        "t"
      ],
      [
        "w",
        "ould"
      ],
      [
        "e",
        "p"
      ],
      [
        "a",
        "w"
      ],
      [
        "ab",
        "le"
      ],
      [
        "c",
        "r"
      ],
      [
        "i",
        "a"
      ],
      [
        "com",
        "p"
      ],
      [
        "th",
        "ing"
      ],
      [
        "a",
        "ke"
      ],
      [
        "as",
        "s"
      ],
      [
        "en",
        "ce"
      ],
      [
        "li",
        "ke"
      ],
      [
        "m",
        "an"
      ],
      [
        "u",
        "re"
      ],
      [
        "l",
        "l"
      ],
      [
        "ver",
        "y"
      ],
      [
        "o",
        "ther"
      ],
      [
        "h",
        "er"
      ],
      [
        "ow",
        "n"
      ],
      [
        "i",
        "z"
      ],
      [
        "be",
        "en"
      ],
      [
        "g",
        "et"
      ],
      [
        "a",
        "v"
      ],
      [
        "A",
        "n"
      ],
      [
        "ac",
        "h"
      ],
      [
        "wor",
        "k"
      ],
      [
        "s",
        "p"
      ],
      [
        "o",
        "ver"
      ],
      [
        "ig",
        "n"
      ],
      [
        "ar",
        "y"
      ],
      [
        "c",
        "re"
      ],
      [
        "ne",
        "w"
      ],
      [
        "ac",
        "e"
      ],
      [
        "i",
        "p"
      ],
      [
        "20",
        "1"
      ],
      [
        "it",
        "e"
      ],
      [
        "con",
        "t"
      ],
      [
        "p",
        "art"
      ],
      [
        "W",
        "h"
      ],
      [
        "st",
        "r"
      ],
      [
        "S",
        "t"
      ],
      [
        "p",
        "res"
      ],
      [
        "for",
        "m"
      ],
      [
        "is",
        "h"
      ],
      [
        "th",
        "an"
      ],
      [
        "u",
        "e"
      ],
      [
        "i",
        "re"
      ],
      [
        "m",
        "y"
      ],
      [
        "w",
        "ay"
      ],
      [
        "th",
        "ere"
      ],
      [
        "a",
        "il"
      ],
      [
        "op",
        "le"
      ],
      [
        "c",
        "ent"
      ],
      [
        "po",
        "s"
      ],
      [
        "d",
        "is"
      ],
      [
        "t",
        "s"
      ],
      [
        "i",
        "le"
      ],
      [
        "tim",
        "e"
      ],
      [
        "i",
        "al"
      ],
      [
        "wh",
        "at"
      ],
      [
        "p",
        "re"
      ],
      [
        "s",
        "er"
      ],
      [
        "ic",
        "al"
      ],
      [
        "1",
        "9"
      ],
      [
        "al",
        "so"
      ],
      [
        "j",
        "ust"
      ],
      [
        "the",
        "m"
      ],
      [
        "C",
        "h"
      ],
      [
        "wh",
        "en"
      ],
      [
        "b",
        "r"
      ],
      [
        "pe",
        "ople"
      ],
      [
        "you",
        "r"
      ],
      [
        "b",
        "le"
      ],
      [
        "c",
        "or"
      ],
      [
        "pl",
        "ay"
      ],
      [
        "f",
        "ir"
      ],
      [
        "H",
        "e"
      ],
      [
        "at",
        "t"
      ],
      [
        "f",
        "er"
      ],
      [
        "ic",
        "k"
      ],
      [
        "p",
        "ol"
      ],
      [
        "t",
        "w"
      ],
      [
        "s",
        "ay"
      ],
      [
        "ation",
        "s"
      ],
      [
        "en",
        "s"
      ],
      [
        "in",
        "ter"
      ],
      [
        "re",
        "n"
      ],
      [
        "l",
        "ow"
      ],
      [
        "an",
        "ce"
      ],
      [
        "p",
        "t"
      ],
      [
        "ct",
        "ion"
      ],
      [
        "e",
        "f"
      ],
      [
        "as",
        "e"
      ],
      [
        "m",
        "on"
      ],
      [
        "re",
        "e"
      ],
      [
        "W",
        "e"
      ],
      [
        "in",
        "to"
      ],
      [
        "an",
        "g"
      ],
      [
        "ol",
        "d"
      ],
      [
        ".",
        "”"
      ],
      [
        "in",
        "k"
      ],
      [
        "m",
        "er"
      ],
      [
        "t",
        "y"
      ],
      [
        "ar",
        "k"
      ],
      [
        "ve",
        "l"
      ],
      [
        "or",
        "y"
      ],
      [
        "mo",
        "st"
      ],
      [
        "id",
        "ent"
      ],
      [
        "c",
        "oun"
      ],
      [
        "i",
        "an"
      ],
      [
        "it",
        "ion"
      ],
      [
        "b",
        "ack"
      ],
      [
        "o",
        "b"
      ],
      [
        "h",
        "ow"
      ],
      [
        "c",
        "au"
      ],
      [
        "p",
        "h"
      ],
      [
        "k",
        "now"
      ],
      [
        "d",
        "u"
      ],
      [
        "s",
        "pe"
      ],
      [
        "at",
        "es"
      ],
      [
        "s",
        "he"
      ],
      [
        "or",
        "s"
      ],
      [
        "ad",
        "e"
      ],
      [
        "af",
        "ter"
      ],
      [
        "u",
        "bl"
      ],
      [
        "r",
        "a"
      ],
      [
        "o",
        "g"
      ],
      [
        "am",
        "p"
      ],
      [
        "T",
        "his"
      ],
      [
        "o",
        "se"
      ],
      [
        "fir",
        "st"
      ],
      [
        "cau",
        "se"
      ],
      [
        "c",
        "ess"
      ],
      [
        "h",
        "im"
      ],
      [
        "c",
        "ould"
      ],
      [
        "p",
        "p"
      ],
      [
        "f",
        "ul"
      ],
      [
        ",",
        "”"
      ],
      [
        "B",
        "ut"
      ],
      [
        "ver",
        "s"
      ],
      [
        "c",
        "ur"
      ],
      [
        "m",
        "in"
      ],
      [
        "fo",
        "re"
      ],
      [
        "on",
        "ly"
      ],
      [
        "se",
        "l"
      ],
      [
        "n",
        "ing"
      ],
      [
        "tw",
        "o"
      ],
      [
        "ro",
        "w"
      ],
      [
        "en",
        "c"
      ],
      [
        "il",
        "d"
      ],
      [
        "at",
        "er"
      ],
      [
        "t",
        "ing"
      ],
      [
        "U",
        "n"
      ],
      [
        ".",
        "\""
      ],
      [
        "be",
        "t"
      ],
      [
        "An",
        "d"
      ],
      [
        "i",
        "ous"
      ],
      [
        "r",
        "y"
      ],
      [
        "re",
        "ad"
      ],
      [
        "m",
        "ed"
      ],
      [
        "s",
        "y"
      ],
      [
        "com",
        "m"
      ],
      [
        "d",
        "es"
      ],
      [
        "un",
        "der"
      ],
      [
        "e",
        "w"
      ],
      [
        "d",
        "id"
      ],
      [
        "f",
        "in"
      ],
      [
        "wh",
        "ere"
      ],
      [
        "d",
        "on"
      ],
      [
        "r",
        "ight"
      ],
      [
        "se",
        "e"
      ],
      [
        "b",
        "u"
      ],
      [
        "ic",
        "t"
      ],
      [
        "ev",
        "en"
      ],
      [
        "ad",
        "d"
      ],
      [
        "ent",
        "s"
      ],
      [
        "ag",
        "ain"
      ],
      [
        "g",
        "u"
      ],
      [
        "u",
        "se"
      ],
      [
        "com",
        "e"
      ],
      [
        "w",
        "ant"
      ],
      [
        "re",
        "g"
      ],
      [
        "s",
        "i"
      ],
      [
        "be",
        "cause"
      ],
      [
        "at",
        "ing"
      ],
      [
        "T",
        "r"
      ],
      [
        "ubl",
        "ic"
      ],
      [
        "year",
        "s"
      ],
      [
        "f",
        "l"
      ],
      [
        "c",
        "all"
      ],
      [
        "as",
        "on"
      ],
      [
        "u",
        "al"
      ],
      [
        "ul",
        "t"
      ],
      [
        "o",
        "s"
      ],
      [
        "A",
        "s"
      ],
      [
        "c",
        "ol"
      ],
      [
        "ne",
        "ed"
      ],
      [
        "v",
        "ing"
      ],
      [
        ",",
        "\""
      ],
      [
        "v",
        "ed"
      ],
      [
        "r",
        "ough"
      ],
      [
        "m",
        "any"
      ],
      [
        "1",
        "0"
      ],
      [
        "e",
        "ct"
      ],
      [
        "re",
        "at"
      ],
      [
        "d",
        "r"
      ],
      [
        "h",
        "o"
      ],
      [
        "e",
        "ver"
      ],
      [
        "a",
        "ir"
      ],
      [
        "res",
        "s"
      ],
      [
        "-",
        "-"
      ],
      [
        "d",
        "own"
      ],
      [
        "us",
        "ed"
      ],
      [
        "e",
        "very"
      ],
      [
        "the",
        "n"
      ],
      [
        "m",
        "ake"
      ],
      [
        "en",
        "er"
      ],
      [
        "lo",
        "ok"
      ],
      [
        "tr",
        "y"
      ],
      [
        "is",
        "s"
      ],
      [
        "s",
        "c"
      ],
      [
        "re",
        "l"
      ],
      [
        "R",
        "e"
      ],
      [
        "u",
        "ch"
      ],
      [
        "in",
        "cl"
      ],
      [
        "the",
        "se"
      ],
      [
        "cor",
        "d"
      ],
      [
        "in",
        "s"
      ],
      [
        "ur",
        "n"
      ],
      [
        "d",
        "if"
      ],
      [
        "ci",
        "al"
      ],
      [
        "le",
        "g"
      ],
      [
        "be",
        "ing"
      ],
      [
        "c",
        "er"
      ],
      [
        "th",
        "ink"
      ],
      [
        "ation",
        "al"
      ],
      [
        "th",
        "ough"
      ],
      [
        "he",
        "l"
      ],
      [
        "m",
        "ay"
      ],
      [
        "it",
        "t"
      ],
      [
        "le",
        "ct"
      ],
      [
        "v",
        "ie"
      ],
      [
        "ment",
        "s"
      ],
      [
        "a",
        "th"
      ],
      [
        "l",
        "and"
      ],
      [
        "st",
        "ate"
      ],
      [
        "w",
        "ell"
      ],
      [
        "e",
        "k"
      ],
      [
        "ar",
        "ch"
      ],
      [
        "20",
        "0"
      ],
      [
        "ou",
        "p"
      ],
      [
        "ch",
        "o"
      ],
      [
        "an",
        "k"
      ],
      [
        "c",
        "ed"
      ],
      [
        "j",
        "ect"
      ],
      [
        "is",
        "e"
      ],
      [
        "l",
        "ong"
      ],
      [
        "po",
        "int"
      ],
      [
        "D",
        "e"
      ],
      [
        "as",
        "ed"
      ],
      [
        "th",
        "rough"
      ],
      [
        "l",
        "ess"
      ],
      [
        "at",
        "ive"
      ],
      [
        "l",
        "ast"
      ],
      [
        "sel",
        "f"
      ],
      [
        "se",
        "t"
      ],
      [
        "an",
        "n"
      ],
      [
        "it",
        "ed"
      ],
      [
        "h",
        "igh"
      ],
      [
        "N",
        "ew"
      ],
      [
        "sh",
        "ould"
      ],
      [
        "A",
        "mer"
      ],
      [
        "Amer",
        "ic"
      ],
      [
        "ak",
        "ing"
      ],
      [
        ".",
        "."
      ],
      [
        "o",
        "re"
      ],
      [
        "pe",
        "ct"
      ],
      [
        "m",
        "uch"
      ],
      [
        ")",
        "."
      ],
      [
        "th",
        "ose"
      ],
      [
        "le",
        "t"
      ],
      [
        "it",
        "ies"
      ],
      [
        "go",
        "ver"
      ],
      [
        "c",
        "le"
      ],
      [
        "um",
        "p"
      ],
      [
        "re",
        "m"
      ],
      [
        "Y",
        "ou"
      ],
      [
        "sh",
        "ow"
      ],
      [
        "u",
        "g"
      ],
      [
        "t",
        "ain"
      ],
      [
        "as",
        "h"
      ],
      [
        "v",
        "en"
      ],
      [
        "ur",
        "ing"
      ],
      [
        "c",
        "ar"
      ],
      [
        "gover",
        "n"
      ],
      [
        "im",
        "p"
      ],
      [
        "I",
        "f"
      ],
      [
        "ic",
        "s"
      ],
      [
        "F",
        "or"
      ],
      [
        "at",
        "ch"
      ],
      [
        "go",
        "ing"
      ],
      [
        "o",
        "y"
      ],
      [
        "do",
        "es"
      ],
      [
        "st",
        "and"
      ],
      [
        "as",
        "k"
      ],
      [
        "re",
        "port"
      ],
      [
        "f",
        "un"
      ],
      [
        "t",
        "al"
      ],
      [
        "st",
        "art"
      ],
      [
        "p",
        "ers"
      ],
      [
        "be",
        "fore"
      ],
      [
        "s",
        "s"
      ],
      [
        "in",
        "ce"
      ],
      [
        "S",
        "o"
      ],
      [
        "p",
        "ut"
      ],
      [
        "w",
        "r"
      ],
      [
        "fe",
        "ct"
      ],
      [
        "v",
        "is"
      ],
      [
        "c",
        "es"
      ],
      [
        "al",
        "s"
      ],
      [
        "l",
        "ed"
      ],
      [
        "m",
        "a"
      ],
      [
        "m",
        "ade"
      ],
      [
        "A",
        "l"
      ],
      [
        "wh",
        "ile"
      ],
      [
        "l",
        "ar"
      ],
      [
        "s",
        "ur"
      ],
      [
        "su",
        "ch"
      ],
      [
        "vie",
        "w"
      ],
      [
        "con",
        "d"
      ],
      [
        "an",
        "ge"
      ],
      [
        "te",
        "am"
      ],
      [
        "m",
        "s"
      ],
      [
        "wor",
        "ld"
      ],
      [
        "v",
        "es"
      ],
      [
        "de",
        "c"
      ],
      [
        "le",
        "ad"
      ],
      [
        "o",
        "c"
      ],
      [
        "con",
        "s"
      ],
      [
        "p",
        "on"
      ],
      [
        "il",
        "y"
      ],
      [
        "st",
        "em"
      ],
      [
        ")",
        ","
      ],
      [
        "su",
        "p"
      ],
      [
        "if",
        "ic"
      ],
      [
        "pro",
        "du"
      ],
      [
        "C",
        "on"
      ],
      [
        "l",
        "aw"
      ],
      [
        "su",
        "b"
      ],
      [
        "t",
        "urn"
      ],
      [
        "go",
        "od"
      ],
      [
        "ing",
        "s"
      ],
      [
        "g",
        "ame"
      ],
      [
        "ul",
        "ar"
      ],
      [
        "st",
        "ud"
      ],
      [
        "t",
        "ri"
      ],
      [
        "c",
        "he"
      ],
      [
        "The",
        "y"
      ],
      [
        "f",
        "i"
      ],
      [
        "u",
        "ally"
      ],
      [
        "we",
        "ek"
      ],
      [
        "y",
        "s"
      ],
      [
        "l",
        "es"
      ],
      [
        "il",
        "ity"
      ],
      [
        "t",
        "on"
      ],
      [
        "ch",
        "ar"
      ],
      [
        "incl",
        "ud"
      ],
      [
        "w",
        "ard"
      ],
      [
        "f",
        "act"
      ],
      [
        "again",
        "st"
      ],
      [
        "g",
        "an"
      ],
      [
        "d",
        "i"
      ],
      [
        "Th",
        "ere"
      ],
      [
        "ex",
        "t"
      ],
      [
        "r",
        "un"
      ],
      [
        "te",
        "st"
      ],
      [
        "F",
        "r"
      ],
      [
        "st",
        "ill"
      ],
      [
        "A",
        "r"
      ],
      [
        "ow",
        "er"
      ],
      [
        "say",
        "s"
      ],
      [
        "t",
        "ake"
      ],
      [
        "s",
        "m"
      ],
      [
        "h",
        "ere"
      ],
      [
        "re",
        "al"
      ],
      [
        "ap",
        "p"
      ],
      [
        "we",
        "en"
      ],
      [
        "l",
        "ine"
      ],
      [
        "hel",
        "p"
      ],
      [
        "he",
        "ad"
      ],
      [
        "n",
        "er"
      ],
      [
        "off",
        "ic"
      ],
      [
        "ill",
        "ion"
      ],
      [
        "dif",
        "fer"
      ],
      [
        "ol",
        "og"
      ],
      [
        "qu",
        "est"
      ],
      [
        "n",
        "um"
      ],
      [
        "govern",
        "ment"
      ],
      [
        "00",
        "0"
      ],
      [
        "c",
        "ut"
      ],
      [
        "c",
        "our"
      ],
      [
        "C",
        "om"
      ],
      [
        "Th",
        "at"
      ],
      [
        "S",
        "e"
      ],
      [
        "l",
        "a"
      ],
      [
        "is",
        "m"
      ],
      [
        "bet",
        "ween"
      ],
      [
        ".",
        "["
      ],
      [
        "c",
        "lo"
      ],
      [
        "s",
        "ign"
      ],
      [
        "u",
        "b"
      ],
      [
        "sy",
        "stem"
      ],
      [
        "w",
        "ar"
      ],
      [
        "s",
        "ame"
      ],
      [
        "ser",
        "v"
      ],
      [
        "c",
        "ap"
      ],
      [
        "h",
        "and"
      ],
      [
        "ol",
        "low"
      ],
      [
        "pro",
        "v"
      ],
      [
        "en",
        "g"
      ],
      [
        "ar",
        "ound"
      ],
      [
        "tr",
        "ans"
      ],
      [
        "N",
        "o"
      ],
      [
        "d",
        "s"
      ],
      [
        "ist",
        "s"
      ],
      [
        "am",
        "es"
      ],
      [
        "a",
        "x"
      ],
      [
        "bo",
        "ok"
      ],
      [
        "I",
        "s"
      ],
      [
        "i",
        "o"
      ],
      [
        "s",
        "ide"
      ],
      [
        "s",
        "on"
      ],
      [
        "pers",
        "on"
      ],
      [
        "th",
        "ree"
      ],
      [
        "p",
        "ublic"
      ],
      [
        "m",
        "em"
      ],
      [
        "f",
        "am"
      ],
      [
        "B",
        "r"
      ],
      [
        "vel",
        "op"
      ],
      [
        "in",
        "st"
      ],
      [
        "L",
        "e"
      ],
      [
        "gr",
        "oup"
      ],
      [
        "ou",
        "se"
      ],
      [
        "t",
        "en"
      ],
      [
        "f",
        "ound"
      ],
      [
        "ter",
        "s"
      ],
      [
        "O",
        "n"
      ],
      [
        "ve",
        "st"
      ],
      [
        "sup",
        "port"
      ],
      [
        "g",
        "ot"
      ],
      [
        "f",
        "f"
      ],
      [
        "B",
        "e"
      ],
      [
        "re",
        "ally"
      ],
      [
        "w",
        "om"
      ],
      [
        "v",
        "i"
      ],
      [
        "u",
        "res"
      ],
      [
        "pres",
        "s"
      ],
      [
        "a",
        "ve"
      ],
      [
        "1",
        "5"
      ],
      [
        "p",
        "ri"
      ],
      [
        "per",
        "i"
      ],
      [
        "m",
        "ark"
      ],
      [
        "is",
        "su"
      ],
      [
        "v",
        "al"
      ],
      [
        "ha",
        "pp"
      ],
      [
        "1",
        "2"
      ],
      [
        "su",
        "l"
      ],
      [
        "Tr",
        "ump"
      ],
      [
        "l",
        "ot"
      ],
      [
        "su",
        "re"
      ],
      [
        "mon",
        "th"
      ],
      [
        "way",
        "s"
      ],
      [
        "p",
        "ower"
      ],
      [
        "U",
        "S"
      ],
      [
        "ge",
        "st"
      ],
      [
        "us",
        "s"
      ],
      [
        "J",
        "o"
      ],
      [
        "bo",
        "th"
      ],
      [
        "d",
        "et"
      ],
      [
        "v",
        "ol"
      ],
      [
        "f",
        "il"
      ],
      [
        "f",
        "ind"
      ],
      [
        "li",
        "fe"
      ],
      [
        "de",
        "f"
      ],
      [
        "ire",
        "ct"
      ],
      [
        "b",
        "ig"
      ],
      [
        "c",
        "al"
      ],
      [
        "to",
        "p"
      ],
      [
        "ag",
        "es"
      ],
      [
        "are",
        "n"
      ],
      [
        "1",
        "8"
      ],
      [
        "p",
        "ar"
      ],
      [
        "o",
        "st"
      ],
      [
        "pol",
        "it"
      ],
      [
        "g",
        "ener"
      ],
      [
        "en",
        "se"
      ],
      [
        "de",
        "velop"
      ],
      [
        "ic",
        "es"
      ],
      [
        "to",
        "ld"
      ],
      [
        "ce",
        "pt"
      ],
      [
        "sh",
        "ip"
      ],
      [
        "d",
        "uring"
      ],
      [
        "m",
        "iss"
      ],
      [
        "res",
        "pon"
      ],
      [
        "i",
        "ed"
      ],
      [
        "al",
        "e"
      ],
      [
        "to",
        "o"
      ],
      [
        "!",
        "!"
      ],
      [
        "al",
        "th"
      ],
      [
        "n",
        "g"
      ],
      [
        "be",
        "li"
      ],
      [
        "C",
        "l"
      ],
      [
        "str",
        "u"
      ],
      [
        "x",
        "t"
      ],
      [
        "f",
        "t"
      ],
      [
        "c",
        "ame"
      ],
      [
        "am",
        "a"
      ],
      [
        "f",
        "ollow"
      ],
      [
        "are",
        "d"
      ],
      [
        "ic",
        "ally"
      ],
      [
        "H",
        "ow"
      ],
      [
        "in",
        "es"
      ],
      [
        "p",
        "ass"
      ],
      [
        "cont",
        "in"
      ],
      [
        "ap",
        "pe"
      ],
      [
        "s",
        "ince"
      ],
      [
        "li",
        "st"
      ],
      [
        "n",
        "et"
      ],
      [
        "1",
        "1"
      ],
      [
        "fe",
        "w"
      ],
      [
        "re",
        "st"
      ],
      [
        "pl",
        "ace"
      ],
      [
        "id",
        "er"
      ],
      [
        "cord",
        "ing"
      ],
      [
        "ar",
        "s"
      ],
      [
        "ex",
        "pl"
      ],
      [
        "se",
        "ason"
      ],
      [
        "l",
        "ight"
      ],
      [
        "n",
        "ational"
      ],
      [
        "a",
        "im"
      ],
      [
        "b",
        "ers"
      ],
      [
        "v",
        "ot"
      ],
      [
        "b",
        "re"
      ],
      [
        "b",
        "us"
      ],
      [
        "r",
        "is"
      ],
      [
        "ak",
        "es"
      ],
      [
        "un",
        "t"
      ],
      [
        "us",
        "ing"
      ],
      [
        "A",
        "t"
      ],
      [
        "cho",
        "ol"
      ],
      [
        "g",
        "iv"
      ],
      [
        "all",
        "ow"
      ],
      [
        "comm",
        "un"
      ],
      [
        "3",
        "0"
      ],
      [
        "s",
        "ol"
      ],
      [
        "some",
        "thing"
      ],
      [
        "f",
        "ar"
      ],
      [
        "b",
        "lo"
      ],
      [
        "g",
        "y"
      ],
      [
        "k",
        "ill"
      ],
      [
        "re",
        "le"
      ],
      [
        "c",
        "are"
      ],
      [
        "in",
        "vest"
      ],
      [
        "u",
        "es"
      ],
      [
        "im",
        "e"
      ],
      [
        "a",
        "h"
      ],
      [
        "od",
        "y"
      ],
      [
        "op",
        "en"
      ],
      [
        "an",
        "other"
      ],
      [
        "v",
        "ent"
      ],
      [
        "A",
        "d"
      ],
      [
        "iz",
        "ed"
      ],
      [
        "cle",
        "ar"
      ],
      [
        "or",
        "der"
      ],
      [
        "b",
        "it"
      ],
      [
        "co",
        "ver"
      ],
      [
        "differ",
        "ent"
      ],
      [
        "call",
        "ed"
      ],
      [
        "read",
        "y"
      ],
      [
        "ren",
        "t"
      ],
      [
        "ut",
        "ion"
      ],
      [
        "at",
        "a"
      ],
      [
        "thing",
        "s"
      ],
      [
        "Wh",
        "en"
      ],
      [
        "ch",
        "ild"
      ],
      [
        "e",
        "ach"
      ],
      [
        "c",
        "amp"
      ],
      [
        "S",
        "h"
      ],
      [
        "ant",
        "s"
      ],
      [
        "po",
        "st"
      ],
      [
        "em",
        "ent"
      ],
      [
        "Wh",
        "at"
      ],
      [
        "m",
        "ight"
      ],
      [
        "h",
        "ome"
      ],
      [
        "i",
        "vers"
      ],
      [
        "us",
        "h"
      ],
      [
        "ne",
        "ver"
      ],
      [
        "pos",
        "si"
      ],
      [
        "se",
        "cond"
      ],
      [
        "cont",
        "ro"
      ],
      [
        "t",
        "ed"
      ],
      [
        "re",
        "qu"
      ],
      [
        "p",
        "or"
      ],
      [
        "se",
        "arch"
      ],
      [
        "P",
        "ro"
      ],
      [
        "in",
        "ess"
      ],
      [
        "gr",
        "am"
      ],
      [
        "be",
        "st"
      ],
      [
        "iz",
        "e"
      ],
      [
        "ne",
        "xt"
      ],
      [
        "at",
        "ter"
      ],
      [
        "d",
        "ist"
      ],
      [
        "per",
        "cent"
      ],
      [
        "n",
        "ess"
      ],
      [
        "s",
        "ing"
      ],
      [
        "includ",
        "ing"
      ],
      [
        "ro",
        "ss"
      ],
      [
        "h",
        "um"
      ],
      [
        "d",
        "irect"
      ],
      [
        "bu",
        "ild"
      ],
      [
        "p",
        "ay"
      ],
      [
        "se",
        "em"
      ],
      [
        "fe",
        "el"
      ],
      [
        "ch",
        "ange"
      ],
      [
        "p",
        "op"
      ],
      [
        "mo",
        "ve"
      ],
      [
        "g",
        "er"
      ],
      [
        "in",
        "cre"
      ],
      [
        "itt",
        "le"
      ],
      [
        "num",
        "ber"
      ],
      [
        "pl",
        "an"
      ],
      [
        "a",
        "z"
      ],
      [
        "le",
        "vel"
      ],
      [
        "l",
        "im"
      ],
      [
        "op",
        "er"
      ],
      [
        "c",
        "ase"
      ],
      [
        "re",
        "sul"
      ],
      [
        "p",
        "s"
      ],
      [
        "m",
        "illion"
      ],
      [
        "o",
        "th"
      ],
      [
        "it",
        "al"
      ],
      [
        "S",
        "he"
      ],
      [
        "im",
        "port"
      ],
      [
        "inter",
        "est"
      ],
      [
        "in",
        "form"
      ],
      [
        "pres",
        "ent"
      ],
      [
        "res",
        "ident"
      ],
      [
        "o",
        "od"
      ],
      [
        "so",
        "ci"
      ],
      [
        "g",
        "reat"
      ],
      [
        "w",
        "on"
      ],
      [
        "h",
        "ard"
      ],
      [
        "m",
        "ar"
      ],
      [
        "d",
        "ri"
      ],
      [
        "with",
        "out"
      ],
      [
        "pro",
        "ble"
      ],
      [
        "con",
        "om"
      ],
      [
        "5",
        "0"
      ],
      [
        "b",
        "all"
      ],
      [
        "c",
        "y"
      ],
      [
        "b",
        "ro"
      ],
      [
        "coun",
        "try"
      ],
      [
        "m",
        "en"
      ],
      [
        "k",
        "ing"
      ],
      [
        "e",
        "le"
      ],
      [
        "one",
        "y"
      ],
      [
        "te",
        "ch"
      ],
      [
        "f",
        "our"
      ],
      [
        "ate",
        "ly"
      ],
      [
        "R",
        "ep"
      ],
      [
        "ri",
        "end"
      ],
      [
        "Americ",
        "an"
      ],
      [
        "s",
        "it"
      ],
      [
        "su",
        "m"
      ],
      [
        "part",
        "ic"
      ],
      [
        "ab",
        "ly"
      ],
      [
        "1",
        "6"
      ],
      [
        "pr",
        "om"
      ],
      [
        "ish",
        "ed"
      ],
      [
        "m",
        "il"
      ],
      [
        "O",
        "b"
      ],
      [
        "m",
        "ain"
      ],
      [
        "l",
        "ing"
      ],
      [
        "bet",
        "ter"
      ],
      [
        "1",
        "4"
      ],
      [
        "r",
        "al"
      ],
      [
        "tr",
        "a"
      ],
      [
        "at",
        "ure"
      ],
      [
        "A",
        "f"
      ],
      [
        "re",
        "cent"
      ],
      [
        "M",
        "ar"
      ],
      [
        "c",
        "ri"
      ],
      [
        "w",
        "in"
      ],
      [
        "el",
        "d"
      ],
      [
        "er",
        "n"
      ],
      [
        "l",
        "ittle"
      ],
      [
        "et",
        "y"
      ],
      [
        "T",
        "o"
      ],
      [
        "et",
        "s"
      ],
      [
        "pr",
        "of"
      ],
      [
        "ke",
        "ep"
      ],
      [
        "u",
        "ro"
      ],
      [
        "le",
        "ft"
      ],
      [
        "j",
        "or"
      ],
      [
        "ap",
        "pro"
      ],
      [
        "or",
        "d"
      ],
      [
        "cl",
        "ass"
      ],
      [
        "att",
        "ack"
      ],
      [
        "P",
        "r"
      ],
      [
        "f",
        "ic"
      ],
      [
        "i",
        "er"
      ],
      [
        "g",
        "re"
      ],
      [
        "it",
        "ing"
      ],
      [
        "on",
        "s"
      ],
      [
        "u",
        "ck"
      ],
      [
        "es",
        "e"
      ],
      [
        "in",
        "a"
      ],
      [
        "enc",
        "y"
      ],
      [
        "s",
        "chool"
      ],
      [
        "1",
        "3"
      ],
      [
        "or",
        "gan"
      ],
      [
        "n",
        "or"
      ],
      [
        "pol",
        "ice"
      ],
      [
        "ch",
        "ang"
      ],
      [
        "ef",
        "fect"
      ],
      [
        "in",
        "al"
      ],
      [
        "did",
        "n"
      ],
      [
        "cl",
        "aim"
      ],
      [
        "g",
        "row"
      ],
      [
        "f",
        "riend"
      ],
      [
        "d",
        "en"
      ],
      [
        "i",
        "b"
      ],
      [
        "de",
        "p"
      ],
      [
        "on",
        "t"
      ],
      [
        "h",
        "ist"
      ],
      [
        "a",
        "ther"
      ],
      [
        "de",
        "l"
      ],
      [
        "n",
        "ed"
      ],
      [
        "pres",
        "ident"
      ],
      [
        "C",
        "an"
      ],
      [
        "b",
        "ased"
      ],
      [
        "e",
        "conom"
      ],
      [
        "spe",
        "c"
      ],
      [
        "ne",
        "ar"
      ],
      [
        "f",
        "ree"
      ],
      [
        "N",
        "or"
      ],
      [
        "m",
        "et"
      ],
      [
        "re",
        "t"
      ],
      [
        "w",
        "it"
      ],
      [
        "re",
        "ason"
      ],
      [
        "d",
        "ata"
      ],
      [
        "or",
        "k"
      ],
      [
        "v",
        "ious"
      ],
      [
        "comp",
        "any"
      ],
      [
        "i",
        "red"
      ],
      [
        "pro",
        "gram"
      ],
      [
        "th",
        "or"
      ],
      [
        "1",
        "7"
      ],
      [
        "at",
        "ic"
      ],
      [
        "p",
        "ur"
      ],
      [
        "b",
        "ody"
      ],
      [
        "pro",
        "cess"
      ],
      [
        "ri",
        "st"
      ],
      [
        "ab",
        "ility"
      ],
      [
        "min",
        "ist"
      ],
      [
        "comp",
        "le"
      ],
      [
        "e",
        "as"
      ],
      [
        "at",
        "or"
      ],
      [
        "ex",
        "pect"
      ],
      [
        "ion",
        "al"
      ],
      [
        "ke",
        "y"
      ],
      [
        "aw",
        "ay"
      ],
      [
        "c",
        "u"
      ],
      [
        "cur",
        "rent"
      ],
      [
        "n",
        "ight"
      ],
      [
        "v",
        "ar"
      ],
      [
        "R",
        "o"
      ],
      [
        "r",
        "ation"
      ],
      [
        "h",
        "old"
      ],
      [
        "l",
        "ater"
      ],
      [
        "h",
        "n"
      ],
      [
        "O",
        "ne"
      ],
      [
        "end",
        "ed"
      ],
      [
        "offic",
        "ial"
      ],
      [
        "id",
        "ed"
      ],
      [
        "des",
        "ign"
      ],
      [
        "t",
        "ell"
      ],
      [
        "sm",
        "all"
      ],
      [
        "c",
        "a"
      ],
      [
        "end",
        "ing"
      ],
      [
        "com",
        "ing"
      ],
      [
        "t",
        "em"
      ],
      [
        "Un",
        "ited"
      ],
      [
        "G",
        "r"
      ],
      [
        "ap",
        "h"
      ],
      [
        "im",
        "es"
      ],
      [
        "c",
        "ity"
      ],
      [
        "pl",
        "oy"
      ],
      [
        "wom",
        "en"
      ],
      [
        "ex",
        "peri"
      ],
      [
        "C",
        "o"
      ],
      [
        "re",
        "ce"
      ],
      [
        "act",
        "ion"
      ],
      [
        "b",
        "al"
      ],
      [
        "m",
        "oney"
      ],
      [
        "A",
        "ll"
      ],
      [
        "re",
        "f"
      ],
      [
        "19",
        "9"
      ],
      [
        "st",
        "ory"
      ],
      [
        "ma",
        "jor"
      ],
      [
        "al",
        "ready"
      ],
      [
        "wh",
        "y"
      ],
      [
        "O",
        "r"
      ],
      [
        "u",
        "de"
      ],
      [
        "ent",
        "er"
      ],
      [
        "tech",
        "n"
      ],
      [
        "bus",
        "iness"
      ],
      [
        "se",
        "ver"
      ],
      [
        "ad",
        "v"
      ],
      [
        "ed",
        "it"
      ],
      [
        "day",
        "s"
      ],
      [
        "r",
        "ic"
      ],
      [
        "at",
        "s"
      ],
      [
        "pro",
        "ject"
      ],
      [
        "iv",
        "es"
      ],
      [
        "cons",
        "ider"
      ],
      [
        "on",
        "es"
      ],
      [
        "m",
        "aking"
      ],
      [
        "f",
        "ace"
      ],
      [
        "he",
        "alth"
      ],
      [
        "v",
        "ir"
      ],
      [
        "is",
        "ed"
      ],
      [
        "b",
        "ed"
      ],
      [
        "w",
        "he"
      ],
      [
        "mo",
        "cr"
      ],
      [
        "k",
        "s"
      ],
      [
        "for",
        "t"
      ],
      [
        "s",
        "imp"
      ],
      [
        "a",
        "ign"
      ],
      [
        "al",
        "ways"
      ],
      [
        "e",
        "lect"
      ],
      [
        "qu",
        "al"
      ],
      [
        "ard",
        "s"
      ],
      [
        "t",
        "ax"
      ],
      [
        "h",
        "op"
      ],
      [
        "M",
        "r"
      ],
      [
        "B",
        "l"
      ],
      [
        "ag",
        "o"
      ],
      [
        "co",
        "st"
      ],
      [
        "com",
        "es"
      ],
      [
        "lar",
        "ge"
      ],
      [
        "2",
        "5"
      ],
      [
        "olog",
        "y"
      ],
      [
        "ut",
        "e"
      ],
      [
        "know",
        "n"
      ],
      [
        "h",
        "al"
      ],
      [
        "inform",
        "ation"
      ],
      [
        "m",
        "ust"
      ],
      [
        "Jo",
        "hn"
      ],
      [
        "b",
        "or"
      ],
      [
        "M",
        "ay"
      ],
      [
        "c",
        "as"
      ],
      [
        "un",
        "d"
      ],
      [
        "p",
        "ast"
      ],
      [
        "j",
        "ob"
      ],
      [
        "happ",
        "en"
      ],
      [
        "import",
        "ant"
      ],
      [
        "g",
        "ed"
      ],
      [
        "C",
        "ol"
      ],
      [
        "su",
        "c"
      ],
      [
        "i",
        "k"
      ],
      [
        "n",
        "ame"
      ],
      [
        "ain",
        "s"
      ],
      [
        "amp",
        "le"
      ],
      [
        "sh",
        "o"
      ],
      [
        "ur",
        "al"
      ],
      [
        "un",
        "ch"
      ],
      [
        "l",
        "ate"
      ],
      [
        "ou",
        "th"
      ],
      [
        "e",
        "y"
      ],
      [
        "ur",
        "y"
      ],
      [
        "pos",
        "ition"
      ],
      [
        "f",
        "ac"
      ],
      [
        "G",
        "o"
      ],
      [
        "work",
        "ing"
      ],
      [
        "possi",
        "ble"
      ],
      [
        "pl",
        "ic"
      ],
      [
        "le",
        "ast"
      ],
      [
        "k",
        "ind"
      ],
      [
        "I",
        "S"
      ],
      [
        "pol",
        "ic"
      ],
      [
        "g",
        "in"
      ],
      [
        "does",
        "n"
      ],
      [
        "ed",
        "er"
      ],
      [
        "like",
        "ly"
      ],
      [
        "ivers",
        "ity"
      ],
      [
        "ex",
        "p"
      ],
      [
        "camp",
        "aign"
      ],
      [
        "C",
        "ar"
      ],
      [
        "new",
        "s"
      ],
      [
        "P",
        "l"
      ],
      [
        "re",
        "cord"
      ],
      [
        "L",
        "i"
      ],
      [
        "ac",
        "y"
      ],
      [
        "Rep",
        "ublic"
      ],
      [
        "W",
        "ith"
      ],
      [
        "fam",
        "ily"
      ],
      [
        "hum",
        "an"
      ],
      [
        "qu",
        "e"
      ],
      [
        "is",
        "ion"
      ],
      [
        "me",
        "an"
      ],
      [
        "s",
        "ite"
      ],
      [
        "in",
        "c"
      ],
      [
        "unt",
        "il"
      ],
      [
        "id",
        "es"
      ],
      [
        "ain",
        "ed"
      ],
      [
        "v",
        "ide"
      ],
      [
        "polit",
        "ical"
      ],
      [
        "en",
        "ough"
      ],
      [
        "ri",
        "but"
      ],
      [
        "s",
        "k"
      ],
      [
        "de",
        "al"
      ],
      [
        "i",
        "x"
      ],
      [
        "w",
        "ater"
      ],
      [
        "cer",
        "tain"
      ],
      [
        "n",
        "am"
      ],
      [
        "ne",
        "y"
      ],
      [
        "cur",
        "ity"
      ],
      [
        "le",
        "ar"
      ],
      [
        "enc",
        "es"
      ],
      [
        "In",
        "d"
      ],
      [
        "pl",
        "ac"
      ],
      [
        "..",
        "."
      ],
      [
        "S",
        "y"
      ],
      [
        "le",
        "y"
      ],
      [
        "E",
        "x"
      ],
      [
        "form",
        "er"
      ],
      [
        "st",
        "er"
      ],
      [
        "tr",
        "act"
      ],
      [
        "i",
        "ans"
      ],
      [
        "of",
        "ten"
      ],
      [
        "st",
        "e"
      ],
      [
        "to",
        "ok"
      ],
      [
        "act",
        "ually"
      ],
      [
        "gr",
        "ound"
      ],
      [
        "E",
        "uro"
      ],
      [
        "in",
        "ed"
      ],
      [
        "j",
        "o"
      ],
      [
        "be",
        "come"
      ],
      [
        "ro",
        "om"
      ],
      [
        "pos",
        "ed"
      ],
      [
        "re",
        "search"
      ],
      [
        "p",
        "le"
      ],
      [
        "pro",
        "te"
      ],
      [
        "D",
        "on"
      ],
      [
        "ful",
        "l"
      ],
      [
        "st",
        "op"
      ],
      [
        "r",
        "or"
      ],
      [
        "M",
        "c"
      ],
      [
        "l",
        "s"
      ],
      [
        "tim",
        "es"
      ],
      [
        "g",
        "ive"
      ],
      [
        "mark",
        "et"
      ],
      [
        "b",
        "ar"
      ],
      [
        "M",
        "an"
      ],
      [
        "ar",
        "ing"
      ],
      [
        "i",
        "ble"
      ],
      [
        "I",
        "m"
      ],
      [
        "s",
        "ci"
      ],
      [
        "P",
        "resident"
      ],
      [
        "t",
        "ar"
      ],
      [
        "p",
        "ot"
      ],
      [
        "h",
        "our"
      ],
      [
        "ir",
        "d"
      ],
      [
[...]
